<?xml version="1.0"?>
<opencv_storage>
<cascade>
  <stageType>BOOST</stageType>
  <featureType>LBP</featureType>
  <height>27</height>
  <width>20</width>
  <stageParams>
    <boostType>GAB</boostType>
    <minHitRate>9.9900001287460327e-01</minHitRate>
    <maxFalseAlarm>6.0000002384185791e-01</maxFalseAlarm>
    <weightTrimRate>9.4999999999999996e-01</weightTrimRate>
    <maxDepth>1</maxDepth>
    <maxWeakCount>100</maxWeakCount></stageParams>
  <featureParams>
    <maxCatCount>256</maxCatCount>
    <featSize>1</featSize></featureParams>
  <stageNum>20</stageNum>
  <stages>
    <!-- stage 0 -->
    <_>
      <maxWeakCount>6</maxWeakCount>
      <stageThreshold>-1.7308548688888550e+00</stageThreshold>
      <weakClassifiers>
        <_>
          <internalNodes>
            0 -1 6 -1060180242 -654320897 -153891841 -125837329
            1077334767 1884749943 -198706193 1936192327</internalNodes>
          <leafValues>
            -8.0383503437042236e-01 2.5986441969871521e-01</leafValues></_>
        <_>
          <internalNodes>
            0 -1 77 -65537 -606209 -2679874 2138710186 -1075871745
            2142445271 -57361 1073425178</internalNodes>
          <leafValues>
            -6.6366696357727051e-01 4.6301677823066711e-01</leafValues></_>
        <_>
          <internalNodes>
            0 -1 92 -65538 40427634 -21435352 5279410 2099069184 1061378
            -202637648 1966604031</internalNodes>
          <leafValues>
            -6.5694409608840942e-01 3.8216620683670044e-01</leafValues></_>
        <_>
          <internalNodes>
            0 -1 58 -67108882 -69471233 1582205834 1004532465 -3154472
            850493893 -91915528 871363583</internalNodes>
          <leafValues>
            -5.1426434516906738e-01 4.5769011974334717e-01</leafValues></_>
        <_>
          <internalNodes>
            0 -1 137 -4561 1861742383 -285217178 -487653842 -8429754
            1115684735 -6301 -167773185</internalNodes>
          <leafValues>
            -4.7033497691154480e-01 4.8662585020065308e-01</leafValues></_>
        <_>
          <internalNodes>
            0 -1 206 -678440704 -235704127 -455967697 1107293447
            1015271153 -76890063 -27296005 1081594307</internalNodes>
          <leafValues>
            -5.4653710126876831e-01 4.0623599290847778e-01</leafValues></_></weakClassifiers></_>
    <!-- stage 1 -->
    <_>
      <maxWeakCount>8</maxWeakCount>
      <stageThreshold>-1.8670647144317627e+00</stageThreshold>
      <weakClassifiers>
        <_>
          <internalNodes>
            0 -1 78 -1048577 1073717239 803191294 1073709053 2076163839
            1073682687 2142993086 1002432955</internalNodes>
          <leafValues>
            -7.1634554862976074e-01 2.8868266940116882e-01</leafValues></_>
        <_>
          <internalNodes>
            0 -1 45 -456727826 -67381353 -758516737 1945107455
            1613216751 -488901637 1934620623 1903686655</internalNodes>
          <leafValues>
            -6.1699450016021729e-01 4.0443906188011169e-01</leafValues></_>
        <_>
          <internalNodes>
            0 -1 48 -149950974 -3390 -203948561 -202377845 -1140855889
            -1213205970 -2363473 600570571</internalNodes>
          <leafValues>
            -5.0137257575988770e-01 4.3153879046440125e-01</leafValues></_>
        <_>
          <internalNodes>
            0 -1 108 -143137082 -1058607130 1980113418 8831502
            -942158649 1074091303 1692878347 1090510799</internalNodes>
          <leafValues>
            -5.8916348218917847e-01 3.5011753439903259e-01</leafValues></_>
        <_>
          <internalNodes>
            0 -1 145 -285217234 -287326769 -561264914 -521216002
            -1618108 1431810643 -136319932 -201327617</internalNodes>
          <leafValues>
            -5.0345349311828613e-01 3.9322909712791443e-01</leafValues></_>
        <_>
          <internalNodes>
            0 -1 227 -134611168 1098373199 -186783164 -789054113
            -492329117 157619202 863499095 1558315</internalNodes>
          <leafValues>
            -6.0039854049682617e-01 3.1640976667404175e-01</leafValues></_>
        <_>
          <internalNodes>
            0 -1 64 -17895425 2079989471 -12714146 -5072590 1878356955
            2104967511 -1680903173 2135962450</internalNodes>
          <leafValues>
            -5.0381273031234741e-01 3.5763612389564514e-01</leafValues></_>
        <_>
          <internalNodes>
            0 -1 138 -268439697 -354421873 -789348858 -486648145
            2073506420 1987555587 -203719081 -151000449</internalNodes>
          <leafValues>
            -4.9851769208908081e-01 3.5098531842231750e-01</leafValues></_></weakClassifiers></_>
    <!-- stage 2 -->
    <_>
      <maxWeakCount>10</maxWeakCount>
      <stageThreshold>-1.8095546960830688e+00</stageThreshold>
      <weakClassifiers>
        <_>
          <internalNodes>
            0 -1 15 -823144977 -2097665 1339513311 -35699489 1273630719
            -4457473 1186678015 1475821815</internalNodes>
          <leafValues>
            -7.0482170581817627e-01 1.7135086655616760e-01</leafValues></_>
        <_>
          <internalNodes>
            0 -1 61 -8194 -8705 1037548542 2080374175 -73680129
            2146433675 2065367804 801077946</internalNodes>
          <leafValues>
            -5.9155309200286865e-01 3.4604382514953613e-01</leafValues></_>
        <_>
          <internalNodes>
            0 -1 114 -4241 -421530769 -769657118 -488706578 -1049753
            1998549863 -8913033 -142606337</internalNodes>
          <leafValues>
            -4.7575914859771729e-01 4.3798476457595825e-01</leafValues></_>
        <_>
          <internalNodes>
            0 -1 90 -67633410 -1285554481 -1566265632 -1599078609
            -12059708 -1284243681 -69862464 -1</internalNodes>
          <leafValues>
            -4.0304890275001526e-01 4.5903423428535461e-01</leafValues></_>
        <_>
          <internalNodes>
            0 -1 241 993344343 998121459 -604143649 -4251921 2134867967
            -3276810 -557057 -1073807922</internalNodes>
          <leafValues>
            -3.4358948469161987e-01 4.6778610348701477e-01</leafValues></_>
        <_>
          <internalNodes>
            0 -1 59 -142968834 1605565406 1040757178 923859946
            1567192125 1601338207 2117290974 1561811967</internalNodes>
          <leafValues>
            -5.1075553894042969e-01 3.1089934706687927e-01</leafValues></_>
        <_>
          <internalNodes>
            0 -1 225 -714096384 1911937905 1278991615 1350040567
            -741363265 -239609673 -1057752586 1082259429</internalNodes>
          <leafValues>
            -5.6579685211181641e-01 3.1660926342010498e-01</leafValues></_>
        <_>
          <internalNodes>
            0 -1 136 -6353 -494994594 -191935966 -1607795250 -183771265
            1093849539 2145379652 -184550409</internalNodes>
          <leafValues>
            -4.7817790508270264e-01 3.3277490735054016e-01</leafValues></_>
        <_>
          <internalNodes>
            0 -1 3 -1026636050 -2924605 1318570495 1576861311 80132093
            -50807121 2007459839 1415018327</internalNodes>
          <leafValues>
            -5.1436883211135864e-01 2.9171639680862427e-01</leafValues></_>
        <_>
          <internalNodes>
            0 -1 158 941364661 -1482365089 -1814710307 -35890691
            -23499787 -88474411 -606307351 -319491916</internalNodes>
          <leafValues>
            -4.7723540663719177e-01 2.9390525817871094e-01</leafValues></_></weakClassifiers></_>
    <!-- stage 3 -->
    <_>
      <maxWeakCount>11</maxWeakCount>
      <stageThreshold>-2.1392612457275391e+00</stageThreshold>
      <weakClassifiers>
        <_>
          <internalNodes>
            0 -1 39 -8454145 -65569 -2671330 -4834528 2142993407
            2147450847 2147450879 2142977803</internalNodes>
          <leafValues>
            -7.0349085330963135e-01 9.3527562916278839e-02</leafValues></_>
        <_>
          <internalNodes>
            0 -1 130 -1364316377 -272647233 -100688385 -2098177
            -1348490305 -268720961 268153855 -1883306523</internalNodes>
          <leafValues>
            -4.7766757011413574e-01 3.5666134953498840e-01</leafValues></_>
        <_>
          <internalNodes>
            0 -1 160 604643617 -134375633 1867497439 -536929865
            798994367 -402669601 -1342697473 28246154</internalNodes>
          <leafValues>
            -5.2040123939514160e-01 2.8235030174255371e-01</leafValues></_>
        <_>
          <internalNodes>
            0 -1 217 -536870988 167771135 1005657488 701838837
            2080226748 135113181 -772410116 480247807</internalNodes>
          <leafValues>
            -4.4985395669937134e-01 3.4589228034019470e-01</leafValues></_>
        <_>
          <internalNodes>
            0 -1 95 -16777909 -486554677 -522950618 -1473577298
            -724568763 1079241333 1958724628 -185338505</internalNodes>
          <leafValues>
            -3.9055317640304565e-01 3.7909299135208130e-01</leafValues></_>
        <_>
          <internalNodes>
            0 -1 223 527319029 -1092862477 -170265089 -1073941541
            -1182826499 -139523351 -1080066049 -1346492304</internalNodes>
          <leafValues>
            -4.0165573358535767e-01 3.7613600492477417e-01</leafValues></_>
        <_>
          <internalNodes>
            0 -1 226 -134482176 -1041763125 -134251145 1107229695
            -273295561 627042186 1255669607 50853703</internalNodes>
          <leafValues>
            -5.3655338287353516e-01 2.5554215908050537e-01</leafValues></_>
        <_>
          <internalNodes>
            0 -1 205 1896070656 -248974017 -1915888201 -1224228953
            -954287429 -4464857 -1206933217 537000603</internalNodes>
          <leafValues>
            -5.1660388708114624e-01 2.3691646754741669e-01</leafValues></_>
        <_>
          <internalNodes>
            0 -1 141 -285226161 1325204303 -119969236 1657940974
            -947951788 20267127 601866308 -218633233</internalNodes>
          <leafValues>
            -3.5738477110862732e-01 3.7516793608665466e-01</leafValues></_>
        <_>
          <internalNodes>
            0 -1 98 -49293322 1038079962 -1644179654 587183066 -1312004
            -1145045571 1843273816 797946242</internalNodes>
          <leafValues>
            -5.1537376642227173e-01 2.6264527440071106e-01</leafValues></_>
        <_>
          <internalNodes>
            0 -1 311 259063807 -2433797 -610280001 -143365676 247615487
            -89921521 -68990089 -273384587</internalNodes>
          <leafValues>
            -3.7514179944992065e-01 3.5407665371894836e-01</leafValues></_></weakClassifiers></_>
    <!-- stage 4 -->
    <_>
      <maxWeakCount>12</maxWeakCount>
      <stageThreshold>-2.2152931690216064e+00</stageThreshold>
      <weakClassifiers>
        <_>
          <internalNodes>
            0 -1 203 1068972023 -1074366465 -12584449 -2098209 -4227073
            -3146773 -6324225 -295681</internalNodes>
          <leafValues>
            -5.8749717473983765e-01 1.9310671091079712e-01</leafValues></_>
        <_>
          <internalNodes>
            0 -1 82 -487657850 -121896977 -16779265 -168822865 585105135
            -1147158581 -135530513 2859758</internalNodes>
          <leafValues>
            -5.6647062301635742e-01 2.3943929374217987e-01</leafValues></_>
        <_>
          <internalNodes>
            0 -1 118 -285216785 -890241153 -285282642 -352387346
            -520106153 1148649335 -452987386 -1023410185</internalNodes>
          <leafValues>
            -3.8053736090660095e-01 3.8941532373428345e-01</leafValues></_>
        <_>
          <internalNodes>
            0 -1 123 -1074266305 1063239163 -547495938 -1075863553
            -7357443 1073449983 1168897788 16774141</internalNodes>
          <leafValues>
            -4.5264515280723572e-01 3.2527640461921692e-01</leafValues></_>
        <_>
          <internalNodes>
            0 -1 242 -1153958093 -1154222237 -2490881 -1073741833
            -1289502797 -263681 -1087504757 -1610350829</internalNodes>
          <leafValues>
            -3.0827808380126953e-01 4.7155940532684326e-01</leafValues></_>
        <_>
          <internalNodes>
            0 -1 20 -1794 -1258770691 -84242706 -1430232346 2137517841
            1951759191 -260572197 1081600895</internalNodes>
          <leafValues>
            -5.4732841253280640e-01 2.3818531632423401e-01</leafValues></_>
        <_>
          <internalNodes>
            0 -1 161 670973821 -572567201 -138289665 -1107317761
            -342377985 -340806981 -1148455937 -2001206160</internalNodes>
          <leafValues>
            -3.8725295662879944e-01 3.5915726423263550e-01</leafValues></_>
        <_>
          <internalNodes>
            0 -1 271 -138973917 1398797079 -866410207 1102435077
            -176494667 -134482971 -318777402 -1059665208</internalNodes>
          <leafValues>
            -3.7313097715377808e-01 3.6214369535446167e-01</leafValues></_>
        <_>
          <internalNodes>
            0 -1 2 -385949017 -605162969 1170175487 -134252579
            1408528817 -339903745 1977042879 1373066599</internalNodes>
          <leafValues>
            -4.2800807952880859e-01 3.1254062056541443e-01</leafValues></_>
        <_>
          <internalNodes>
            0 -1 221 2146762749 -35719697 -73731585 -1073810498
            -1108495363 -38296369 -83460 -1108727624</internalNodes>
          <leafValues>
            -4.1496661305427551e-01 2.9674851894378662e-01</leafValues></_>
        <_>
          <internalNodes>
            0 -1 281 -279990489 -1495808657 -286532956 583791854
            -480305344 1165730341 -3425692 -432013825</internalNodes>
          <leafValues>
            -4.2711713910102844e-01 2.9595181345939636e-01</leafValues></_>
        <_>
          <internalNodes>
            0 -1 111 -135269021 -355502225 -32513536 -261428546 -3671448
            1915185215 -205655194 -260574211</internalNodes>
          <leafValues>
            -4.2060804367065430e-01 2.8932771086692810e-01</leafValues></_></weakClassifiers></_>
    <!-- stage 5 -->
    <_>
      <maxWeakCount>13</maxWeakCount>
      <stageThreshold>-2.0590000152587891e+00</stageThreshold>
      <weakClassifiers>
        <_>
          <internalNodes>
            0 -1 96 -285544454 -327682 -11390982 -851974 -590025730
            -11211300 -459777 -143263745</internalNodes>
          <leafValues>
            -6.3746726512908936e-01 5.0234660506248474e-02</leafValues></_>
        <_>
          <internalNodes>
            0 -1 263 1073430015 -1356008488 -174063617 -67586 937393151
            -1344306757 1004502013 -1912711944</internalNodes>
          <leafValues>
            -4.5744031667709351e-01 2.6955488324165344e-01</leafValues></_>
        <_>
          <internalNodes>
            0 -1 106 -9439744 11261952 -43253761 -1376788737 -73
            -976492061 -84345868 -1544028161</internalNodes>
          <leafValues>
            -4.5290973782539368e-01 2.7448350191116333e-01</leafValues></_>
        <_>
          <internalNodes>
            0 -1 43 -823134289 -117870556 -268435497 -572653585
            -2072121345 -302780931 -1216872449 1970501447</internalNodes>
          <leafValues>
            -3.4244674444198608e-01 3.9334213733673096e-01</leafValues></_>
        <_>
          <internalNodes>
            0 -1 233 -5243982 -64465393 -673847168 -1315967314
            -199042216 325956 1970398464 -671088641</internalNodes>
          <leafValues>
            -3.5660031437873840e-01 3.4272152185440063e-01</leafValues></_>
        <_>
          <internalNodes>
            0 -1 295 -285217277 -926556186 -1406685014 -2065174750
            -1498489953 -926024772 -269570356 -2067337558</internalNodes>
          <leafValues>
            -3.4936976432800293e-01 3.4235996007919312e-01</leafValues></_>
        <_>
          <internalNodes>
            0 -1 66 -293666882 -25379585 -1752044098 1976049202
            1123188223 1778352095 1843232603 2066902299</internalNodes>
          <leafValues>
            -4.8835724592208862e-01 2.5243943929672241e-01</leafValues></_>
        <_>
          <internalNodes>
            0 -1 169 -50344818 1684008783 -761729366 -488965890
            -475045516 1465613119 -136089740 -134545569</internalNodes>
          <leafValues>
            -4.5842739939689636e-01 2.4573327600955963e-01</leafValues></_>
        <_>
          <internalNodes>
            0 -1 155 930856500 359724753 -1948274956 503304573
            1068486527 1072941564 715173548 253734571</internalNodes>
          <leafValues>
            -4.7008648514747620e-01 2.5006139278411865e-01</leafValues></_>
        <_>
          <internalNodes>
            0 -1 310 -1343029249 -4522010 -1073745921 -1481475081
            250935295 -1 -536871073 -269394847</internalNodes>
          <leafValues>
            -2.9380673170089722e-01 4.1065445542335510e-01</leafValues></_>
        <_>
          <internalNodes>
            0 -1 187 604766208 293016725 -69468257 -309600789 939373965
            -1078275 1554963661 556734735</internalNodes>
          <leafValues>
            -5.5749535560607910e-01 2.0284782350063324e-01</leafValues></_>
        <_>
          <internalNodes>
            0 -1 143 -285757681 -755253649 -900587294 1627388782
            1742164291 1146308843 -470942940 -167772185</internalNodes>
          <leafValues>
            -3.3650675415992737e-01 3.5316017270088196e-01</leafValues></_>
        <_>
          <internalNodes>
            0 -1 128 244324151 -1076537609 -586080771 -544033953
            -878044161 -349314409 -1701197315 -1933568828</internalNodes>
          <leafValues>
            -4.4736748933792114e-01 2.6851913332939148e-01</leafValues></_></weakClassifiers></_>
    <!-- stage 6 -->
    <_>
      <maxWeakCount>14</maxWeakCount>
      <stageThreshold>-1.9153670072555542e+00</stageThreshold>
      <weakClassifiers>
        <_>
          <internalNodes>
            0 -1 24 -8194 -204486658 -2437638 2012216303 -2629673
            1895028721 -201329998 1978138623</internalNodes>
          <leafValues>
            -6.5291649103164673e-01 2.9377974569797516e-02</leafValues></_>
        <_>
          <internalNodes>
            0 -1 56 -2049 -218630530 -554699062 -420479297 -170462972
            1886896231 -136055564 -185075969</internalNodes>
          <leafValues>
            -3.3462333679199219e-01 3.9320889115333557e-01</leafValues></_>
        <_>
          <internalNodes>
            0 -1 252 -268435474 -504628274 -146819166 -1233133841
            -402656265 126088685 33022288 134214899</internalNodes>
          <leafValues>
            -4.4710838794708252e-01 2.6197624206542969e-01</leafValues></_>
        <_>
          <internalNodes>
            0 -1 122 580664191 2136227831 1872575871 1072446966
            989150077 536030203 1006338047 1072574258</internalNodes>
          <leafValues>
            -5.0940316915512085e-01 2.2975975275039673e-01</leafValues></_>
        <_>
          <internalNodes>
            0 -1 44 -286333009 1604309951 -839952387 -537405709
            -840055569 1589379071 -940619777 1078412503</internalNodes>
          <leafValues>
            -4.1539928317070007e-01 3.0655464529991150e-01</leafValues></_>
        <_>
          <internalNodes>
            0 -1 282 -336613856 -1395330344 -78190864 -419505192 -269964
            1165204017 -171183628 -721422859</internalNodes>
          <leafValues>
            -4.7283059358596802e-01 2.3593454062938690e-01</leafValues></_>
        <_>
          <internalNodes>
            0 -1 270 -212338893 -1821966414 401830563 271822856
            -692337791 -778316218 -239338565 -252452470</internalNodes>
          <leafValues>
            -3.5380294919013977e-01 3.2360047101974487e-01</leafValues></_>
        <_>
          <internalNodes>
            0 -1 91 -18879930 1618398990 -490487770 -521670938 -74483713
            1668016735 -135268377 1953492847</internalNodes>
          <leafValues>
            -4.8388174176216125e-01 2.4883791804313660e-01</leafValues></_>
        <_>
          <internalNodes>
            0 -1 328 1341321215 -8193 -655361 -1079971877 1584676575
            -536875011 -12751105 -1998849</internalNodes>
          <leafValues>
            -2.3593240976333618e-01 4.8334789276123047e-01</leafValues></_>
        <_>
          <internalNodes>
            0 -1 104 -44040913 792686871 416128395 -1930572387
            -1248150209 -1354911557 -1589904133 3141417</internalNodes>
          <leafValues>
            -4.3261641263961792e-01 2.4102316796779633e-01</leafValues></_>
        <_>
          <internalNodes>
            0 -1 113 -67114066 493923506 -25704432 -1084182866
            1396261240 756066640 2035670264 1278589695</internalNodes>
          <leafValues>
            -4.2005920410156250e-01 2.5935801863670349e-01</leafValues></_>
        <_>
          <internalNodes>
            0 -1 198 -75776078 603979231 -1680360516 -1128270825
            -1879470675 78563387 -1359612440 10221039</internalNodes>
          <leafValues>
            -4.6668446063995361e-01 2.2152574360370636e-01</leafValues></_>
        <_>
          <internalNodes>
            0 -1 307 258002939 -13714314 1387355103 265595644 192976623
            -48523061 -2040052053 1331713440</internalNodes>
          <leafValues>
            -4.2657101154327393e-01 2.3717285692691803e-01</leafValues></_>
        <_>
          <internalNodes>
            0 -1 269 -201328720 -1929054606 -1295647745 -1257900045
            -1862877520 -1949112700 -2364171 12957137</internalNodes>
          <leafValues>
            -4.4945824146270752e-01 2.5141584873199463e-01</leafValues></_></weakClassifiers></_>
    <!-- stage 7 -->
    <_>
      <maxWeakCount>15</maxWeakCount>
      <stageThreshold>-1.8704640865325928e+00</stageThreshold>
      <weakClassifiers>
        <_>
          <internalNodes>
            0 -1 199 -84083715 -151203337 -70256674 -103122946
            -236652044 -84620173 -67108 -1110398024</internalNodes>
          <leafValues>
            -6.2595528364181519e-01 1.4834349276497960e-03</leafValues></_>
        <_>
          <internalNodes>
            0 -1 100 -12585179 -1217207265 -8465423 -1350725657
            -195052225 -538977289 -134103777 786367</internalNodes>
          <leafValues>
            -4.4086754322052002e-01 2.4264265596866608e-01</leafValues></_>
        <_>
          <internalNodes>
            0 -1 74 -954 -521931162 -426317814 -956371250 -167815936
            1112621060 -141035625 1954018287</internalNodes>
          <leafValues>
            -4.5755657553672791e-01 2.3880875110626221e-01</leafValues></_>
        <_>
          <internalNodes>
            0 -1 245 -338697342 -238293809 1436108545 -1280706653
            -2136216825 -1943028790 19129879 18855783</internalNodes>
          <leafValues>
            -3.7746340036392212e-01 2.8268903493881226e-01</leafValues></_>
        <_>
          <internalNodes>
            0 -1 224 311434549 -1092849161 -48255018 -2730562 1796569087
            -73694803 -337035335 -1111983468</internalNodes>
          <leafValues>
            -4.5164623856544495e-01 2.3928157985210419e-01</leafValues></_>
        <_>
          <internalNodes>
            0 -1 110 -67633274 1094905558 -355294718 44212878 -780807282
            1145327893 1944409883 278257663</internalNodes>
          <leafValues>
            -4.8399758338928223e-01 2.0047548413276672e-01</leafValues></_>
        <_>
          <internalNodes>
            0 -1 308 632352751 -140837515 -142606337 1064344764
            118554623 -8227 -822608641 -1947118665</internalNodes>
          <leafValues>
            -2.8259381651878357e-01 3.5564324259757996e-01</leafValues></_>
        <_>
          <internalNodes>
            0 -1 63 1759430015 -1676506673 -908400260 -14622862
            1133192046 2120706639 -183669992 2064873058</internalNodes>
          <leafValues>
            -4.4288757443428040e-01 2.3187398910522461e-01</leafValues></_>
        <_>
          <internalNodes>
            0 -1 16 -890607890 -1076440581 1333719039 2045687805
            546399919 602584987 868378365 1968665471</internalNodes>
          <leafValues>
            -5.2157711982727051e-01 1.7047934234142303e-01</leafValues></_>
        <_>
          <internalNodes>
            0 -1 60 -550506586 -1545604656 517922814 847237325 -23337480
            -168347479 -2738444 1694498639</internalNodes>
          <leafValues>
            -4.7297877073287964e-01 2.1550646424293518e-01</leafValues></_>
        <_>
          <internalNodes>
            0 -1 302 -335548633 -1895836889 1094553818 7003270
            -1713131577 140691636 -2086671740 -1063005185</internalNodes>
          <leafValues>
            -3.7907347083091736e-01 2.6095226407051086e-01</leafValues></_>
        <_>
          <internalNodes>
            0 -1 189 1297036034 488624345 -1551895146 257163246
            -273485348 -3671 -675294310 -272958450</internalNodes>
          <leafValues>
            -3.6421629786491394e-01 2.6599106192588806e-01</leafValues></_>
        <_>
          <internalNodes>
            0 -1 327 251017215 -144840706 -1651648001 -338528956
            1166039918 -12586549 -989072817 1272994611</internalNodes>
          <leafValues>
            -3.8013890385627747e-01 2.4948057532310486e-01</leafValues></_>
        <_>
          <internalNodes>
            0 -1 240 -877662280 175041202 -329311304 729712018 268173209
            798997914 2146295784 150992891</internalNodes>
          <leafValues>
            -4.4381257891654968e-01 2.3401229083538055e-01</leafValues></_>
        <_>
          <internalNodes>
            0 -1 174 -67162354 1928317743 -753284370 587098767
            1909658435 1293025283 1659806037 -453519513</internalNodes>
          <leafValues>
            -3.5361474752426147e-01 2.7111190557479858e-01</leafValues></_></weakClassifiers></_>
    <!-- stage 8 -->
    <_>
      <maxWeakCount>16</maxWeakCount>
      <stageThreshold>-2.0316381454467773e+00</stageThreshold>
      <weakClassifiers>
        <_>
          <internalNodes>
            0 -1 33 -287313921 -543752834 -623445506 -1908738 -118293649
            -76060081 -67764913 -10070153</internalNodes>
          <leafValues>
            -5.7483392953872681e-01 1.5211267396807671e-02</leafValues></_>
        <_>
          <internalNodes>
            0 -1 131 -1431642110 -85508329 -69214209 -215288094
            -2018510969 -271599397 134214391 -1045696009</internalNodes>
          <leafValues>
            -4.2168682813644409e-01 2.1387971937656403e-01</leafValues></_>
        <_>
          <internalNodes>
            0 -1 235 -16789810 -1027352819 -654390174 -486540346
            -157561258 1652544053 -419454396 -218104065</internalNodes>
          <leafValues>
            -3.4567320346832275e-01 2.7217605710029602e-01</leafValues></_>
        <_>
          <internalNodes>
            0 -1 200 500506928 191692004 2130520693 1071480799 796655613
            1070202874 166137484 1072414702</internalNodes>
          <leafValues>
            -4.4396650791168213e-01 2.5625166296958923e-01</leafValues></_>
        <_>
          <internalNodes>
            0 -1 12 -686889977 -207096393 -1781278371 -543564817
            -146541057 -69600785 -1911717921 1158000367</internalNodes>
          <leafValues>
            -3.2591906189918518e-01 2.9678502678871155e-01</leafValues></_>
        <_>
          <internalNodes>
            0 -1 71 -9437244 -51380282 -1075066492 209704518 -627311692
            -1358959126 -608440506 15654983</internalNodes>
          <leafValues>
            -4.6032053232192993e-01 2.0442715287208557e-01</leafValues></_>
        <_>
          <internalNodes>
            0 -1 50 -50337050 -119593322 2144027839 2010093774
            1365173231 1657481583 2004613019 1934061615</internalNodes>
          <leafValues>
            -3.7564304471015930e-01 2.4850495159626007e-01</leafValues></_>
        <_>
          <internalNodes>
            0 -1 309 220396471 -9765009 -268959745 -1141710922 659684863
            -285741123 -302063873 -537546763</internalNodes>
          <leafValues>
            -2.5780189037322998e-01 3.6671775579452515e-01</leafValues></_>
        <_>
          <internalNodes>
            0 -1 40 -908144641 1549193659 -660906122 -86352430 193540091
            1069504767 948072023 1475373427</internalNodes>
          <leafValues>
            -5.3571069240570068e-01 1.7957232892513275e-01</leafValues></_>
        <_>
          <internalNodes>
            0 -1 330 82879487 -70813709 -154737985 -1484607393 5536731
            -277114517 -278143233 1340129139</internalNodes>
          <leafValues>
            -3.5268703103065491e-01 2.6245597004890442e-01</leafValues></_>
        <_>
          <internalNodes>
            0 -1 278 -1213219018 575649078 -504217086 1783162026
            -746648752 117555203 1634726224 -135278609</internalNodes>
          <leafValues>
            -3.7588918209075928e-01 2.3748421669006348e-01</leafValues></_>
        <_>
          <internalNodes>
            0 -1 147 -889224530 719309918 -660829688 -487404629
            2090031444 1413736704 -223647114 -144187393</internalNodes>
          <leafValues>
            -4.1235420107841492e-01 2.1943242847919464e-01</leafValues></_>
        <_>
          <internalNodes>
            0 -1 194 -537431132 -623378573 1431558437 1170663733
            -1073771016 -2009924239 989541212 412179871</internalNodes>
          <leafValues>
            -3.8971337676048279e-01 2.2675935924053192e-01</leafValues></_>
        <_>
          <internalNodes>
            0 -1 265 -231477199 389788753 -1673929225 930870260
            -1014522991 -276067981 -1340150873 -2145326345</internalNodes>
          <leafValues>
            -3.3385652303695679e-01 2.6363971829414368e-01</leafValues></_>
        <_>
          <internalNodes>
            0 -1 162 539108256 -1084644201 1602620351 1633382123
            1938536383 -1344296549 -1353724417 65276555</internalNodes>
          <leafValues>
            -5.0201153755187988e-01 1.4903372526168823e-01</leafValues></_>
        <_>
          <internalNodes>
            0 -1 248 1743775626 1172827879 -2038624672 -1929404737
            -1881297159 30600813 -1350963450 91747654</internalNodes>
          <leafValues>
            -4.3360131978988647e-01 2.0428282022476196e-01</leafValues></_></weakClassifiers></_>
    <!-- stage 9 -->
    <_>
      <maxWeakCount>17</maxWeakCount>
      <stageThreshold>-1.8164345026016235e+00</stageThreshold>
      <weakClassifiers>
        <_>
          <internalNodes>
            0 -1 137 -69212049 1927265023 -727989146 -218366786
            -608182705 1110944619 -279705 -201327617</internalNodes>
          <leafValues>
            -5.7238483428955078e-01 5.3873304277658463e-03</leafValues></_>
        <_>
          <internalNodes>
            0 -1 148 -720044034 -537092098 1335230362 1040004830
            -275136515 -33775684 2139042476 804792832</internalNodes>
          <leafValues>
            -5.7049024105072021e-01 1.4049091935157776e-01</leafValues></_>
        <_>
          <internalNodes>
            0 -1 313 1255337967 -4269569 -470467841 -319512610 265318167
            -4798053 -306253973 -269166537</internalNodes>
          <leafValues>
            -3.1084749102592468e-01 2.7957904338836670e-01</leafValues></_>
        <_>
          <internalNodes>
            0 -1 234 -536888646 1202676331 -48790504 -2048037186
            1576968152 160795044 1142437020 503316279</internalNodes>
          <leafValues>
            -3.4631532430648804e-01 2.7154678106307983e-01</leafValues></_>
        <_>
          <internalNodes>
            0 -1 51 -272636241 -199295392 -849358817 -49875742
            1335588863 -1076167000 1732994915 1979675991</internalNodes>
          <leafValues>
            -3.5209989547729492e-01 2.5815862417221069e-01</leafValues></_>
        <_>
          <internalNodes>
            0 -1 27 -1426400546 -1461663110 -302449966 -39668922
            2121235929 845351507 2011134201 1564180319</internalNodes>
          <leafValues>
            -4.5202773809432983e-01 2.0229075849056244e-01</leafValues></_>
        <_>
          <internalNodes>
            0 -1 124 878701108 379749488 1842866174 802280919 2052655709
            798751487 1808477438 801106415</internalNodes>
          <leafValues>
            -4.5566353201866150e-01 1.9510820508003235e-01</leafValues></_>
        <_>
          <internalNodes>
            0 -1 253 -924844049 -1209020418 -728369440 -236979992
            1803546619 -1987126824 669741922 1474287566</internalNodes>
          <leafValues>
            -3.0214077234268188e-01 2.7598550915718079e-01</leafValues></_>
        <_>
          <internalNodes>
            0 -1 326 1810956287 -1 -420020225 1869643759 78921695
            -1343234065 -134271633 -805863433</internalNodes>
          <leafValues>
            -2.2220072150230408e-01 3.8449558615684509e-01</leafValues></_>
        <_>
          <internalNodes>
            0 -1 186 1031777024 924131892 -1644210181 794646527
            -138632263 -55567693 -890249285 1563669</internalNodes>
          <leafValues>
            -4.2331522703170776e-01 2.0516787469387054e-01</leafValues></_>
        <_>
          <internalNodes>
            0 -1 140 -419516626 786286567 -387528402 -523181850
            -419205563 1630618170 -428967114 -226821185</internalNodes>
          <leafValues>
            -5.1065176725387573e-01 1.3366079330444336e-01</leafValues></_>
        <_>
          <internalNodes>
            0 -1 239 1278525300 -597912752 -742721026 -182682180
            2032924597 -1631098191 -202673940 -1732628040</internalNodes>
          <leafValues>
            -3.5389700531959534e-01 2.4691051244735718e-01</leafValues></_>
        <_>
          <internalNodes>
            0 -1 274 -610272733 1597601737 -525633273 22049032
            -1445155381 -355674445 -235274759 -1058014264</internalNodes>
          <leafValues>
            -2.7318164706230164e-01 3.1654566526412964e-01</leafValues></_>
        <_>
          <internalNodes>
            0 -1 65 1691788542 743844963 1497823870 -6262998 1491288270
            -864729524 -369035572 2101050146</internalNodes>
          <leafValues>
            -3.7766501307487488e-01 2.3053552210330963e-01</leafValues></_>
        <_>
          <internalNodes>
            0 -1 118 -354423254 1758459279 -1764506006 -352397106
            -884536768 1109805825 1146298930 -185076921</internalNodes>
          <leafValues>
            -4.1465061902999878e-01 1.7727088928222656e-01</leafValues></_>
        <_>
          <internalNodes>
            0 -1 87 -1208648258 1891821529 -1874071898 1089310158
            -15482884 -570688070 2141060896 1342176571</internalNodes>
          <leafValues>
            -3.4581300616264343e-01 2.3666323721408844e-01</leafValues></_>
        <_>
          <internalNodes>
            0 -1 185 878001461 1014853847 -1751787298 -1112253985
            -359907627 -119217223 -1698808931 -2008019704</internalNodes>
          <leafValues>
            -4.1891157627105713e-01 1.9122780859470367e-01</leafValues></_></weakClassifiers></_>
    <!-- stage 10 -->
    <_>
      <maxWeakCount>19</maxWeakCount>
      <stageThreshold>-1.9327920675277710e+00</stageThreshold>
      <weakClassifiers>
        <_>
          <internalNodes>
            0 -1 107 -288423954 -487663698 -574884106 -224866274
            803077111 1111481283 2008020614 -134481922</internalNodes>
          <leafValues>
            -6.0963696241378784e-01 -8.5580989718437195e-02</leafValues></_>
        <_>
          <internalNodes>
            0 -1 183 813588341 -539201027 -1244209217 -8400450
            -594452755 -1352029 -118064161 -4493445</internalNodes>
          <leafValues>
            -3.0264002084732056e-01 2.7040949463844299e-01</leafValues></_>
        <_>
          <internalNodes>
            0 -1 266 -338691293 1105984378 536870871 -235149197
            -1371325183 -2013077402 -1352671293 1103361918</internalNodes>
          <leafValues>
            -2.8125277161598206e-01 2.9084092378616333e-01</leafValues></_>
        <_>
          <internalNodes>
            0 -1 312 1869807551 -17104897 -268441601 -856202 233009023
            -2057 -557218 -806204829</internalNodes>
          <leafValues>
            -2.5122588872909546e-01 3.2813560962677002e-01</leafValues></_>
        <_>
          <internalNodes>
            0 -1 72 -993008434 -171996645 1860950525 -581447425
            1646779615 765192691 1934587751 1627874151</internalNodes>
          <leafValues>
            -3.7172695994377136e-01 2.3630017042160034e-01</leafValues></_>
        <_>
          <internalNodes>
            0 -1 146 -824308084 -1468616737 1233260346 -13460558
            1287969240 -80413712 2137546200 -176865797</internalNodes>
          <leafValues>
            -3.9641919732093811e-01 2.2082327306270599e-01</leafValues></_>
        <_>
          <internalNodes>
            0 -1 180 1877344048 1031263678 -313044996 793234901 -4458243
            1303110583 1861349628 146800061</internalNodes>
          <leafValues>
            -4.4813582301139832e-01 1.4987806975841522e-01</leafValues></_>
        <_>
          <internalNodes>
            0 -1 81 -1364218336 -1078724458 -1898718985 -1346898710
            1000341311 -1895891338 -34386921 11794975</internalNodes>
          <leafValues>
            -4.7480729222297668e-01 1.8715037405490875e-01</leafValues></_>
        <_>
          <internalNodes>
            0 -1 109 -134815514 1079436230 -796237304 829996 1396942756
            1316192 -267962869 274595663</internalNodes>
          <leafValues>
            -5.6008821725845337e-01 1.2233816832304001e-01</leafValues></_>
        <_>
          <internalNodes>
            0 -1 254 -20185106 717656175 -2029137598 889309646
            -359924745 32090773 2008019700 1174392783</internalNodes>
          <leafValues>
            -4.1359803080558777e-01 1.9013339281082153e-01</leafValues></_>
        <_>
          <internalNodes>
            0 -1 301 -245367033 -1256670539 -792538913 60874690
            -674311255 -858875506 1946017960 -2141129586</internalNodes>
          <leafValues>
            -2.8085377812385559e-01 2.7089369297027588e-01</leafValues></_>
        <_>
          <internalNodes>
            0 -1 22 -1678065186 157198606 -17896464 -123454034
            1916927060 1415806240 1666439012 1986229815</internalNodes>
          <leafValues>
            -5.3302681446075439e-01 1.3147678971290588e-01</leafValues></_>
        <_>
          <internalNodes>
            0 -1 330 263351279 -606962149 -1068831874 267413882 29363147
            -1680145841 1760139962 267426691</internalNodes>
          <leafValues>
            -3.6981904506683350e-01 2.1639524400234222e-01</leafValues></_>
        <_>
          <internalNodes>
            0 -1 53 -286331097 -16850708 342116061 -540948797 715786161
            -1158046921 1234060703 1204511975</internalNodes>
          <leafValues>
            -4.0069919824600220e-01 1.9257295131683350e-01</leafValues></_>
        <_>
          <internalNodes>
            0 -1 220 -1091567730 728234772 -537620808 -144663158
            953136015 1343253496 -235986738 -717493489</internalNodes>
          <leafValues>
            -2.7653211355209351e-01 2.7597618103027344e-01</leafValues></_>
        <_>
          <internalNodes>
            0 -1 201 802504188 370432415 -1824036387 1037456767
            -1147967515 -68460023 -1094813155 -1364706196</internalNodes>
          <leafValues>
            -4.2666634917259216e-01 1.6448649764060974e-01</leafValues></_>
        <_>
          <internalNodes>
            0 -1 168 -9449938 1736401219 1860092964 -637293054
            -285250356 1073742147 -218304862 1936969991</internalNodes>
          <leafValues>
            -3.7341153621673584e-01 2.1243451535701752e-01</leafValues></_>
        <_>
          <internalNodes>
            0 -1 318 1206973439 -210659621 -216959697 -870797844
            1462764083 -631019485 -874837385 -958076057</internalNodes>
          <leafValues>
            -2.6878178119659424e-01 2.8222739696502686e-01</leafValues></_>
        <_>
          <internalNodes>
            0 -1 41 -611321834 1657569466 -851977169 -134287300
            874461510 1230166246 1519086687 2067221311</internalNodes>
          <leafValues>
            -3.2673728466033936e-01 2.3811756074428558e-01</leafValues></_></weakClassifiers></_>
    <!-- stage 11 -->
    <_>
      <maxWeakCount>19</maxWeakCount>
      <stageThreshold>-1.8361523151397705e+00</stageThreshold>
      <weakClassifiers>
        <_>
          <internalNodes>
            0 -1 132 -1364807936 -292627973 -3014658 -69536294 669777271
            -1414797181 1537991670 -1006901769</internalNodes>
          <leafValues>
            -6.4946025609970093e-01 -1.2937903404235840e-01</leafValues></_>
        <_>
          <internalNodes>
            0 -1 329 1335028735 -33601093 -271648297 -1889469441
            1231311358 -73945191 -369099826 -271548673</internalNodes>
          <leafValues>
            -2.6710814237594604e-01 2.9834854602813721e-01</leafValues></_>
        <_>
          <internalNodes>
            0 -1 202 -269055742 245616421 -1084256260 735966173
            -275042305 800848543 -302264344 150728427</internalNodes>
          <leafValues>
            -4.5343253016471863e-01 1.7012350261211395e-01</leafValues></_>
        <_>
          <internalNodes>
            0 -1 230 -420744286 -819868798 -144718592 -1548757984
            -1039410417 171934298 17105989 1465894487</internalNodes>
          <leafValues>
            -3.8602516055107117e-01 2.2155083715915680e-01</leafValues></_>
        <_>
          <internalNodes>
            0 -1 307 267452415 -8477866 1782296795 127942002 255857403
            -67112025 -894440209 267406643</internalNodes>
          <leafValues>
            -3.4755665063858032e-01 2.2485998272895813e-01</leafValues></_>
        <_>
          <internalNodes>
            0 -1 129 -1342958309 -2173989 -451150337 -2370407 -835916819
            -89484915 -1685073921 -1929902956</internalNodes>
          <leafValues>
            -3.1235778331756592e-01 2.4816392362117767e-01</leafValues></_>
        <_>
          <internalNodes>
            0 -1 75 -563089432 -1550065773 -1117798624 -1294749475
            -1078211212 939495089 -100703888 812118255</internalNodes>
          <leafValues>
            -4.8202747106552124e-01 1.6637143492698669e-01</leafValues></_>
        <_>
          <internalNodes>
            0 -1 182 1054572541 -1073909417 1544813055 -36028769
            -1094288387 -105154293 -87168018 -1083015594</internalNodes>
          <leafValues>
            -3.0402886867523193e-01 2.5221320986747742e-01</leafValues></_>
        <_>
          <internalNodes>
            0 -1 207 -58801643 -1285784449 -108034593 1003598927
            439316720 -122684557 -1304183367 261419</internalNodes>
          <leafValues>
            -3.3591648936271667e-01 2.2801026701927185e-01</leafValues></_>
        <_>
          <internalNodes>
            0 -1 144 -285234618 -362831553 -971317202 -523646290
            578750277 68637281 580888138 -445125009</internalNodes>
          <leafValues>
            -3.3649271726608276e-01 2.4903543293476105e-01</leafValues></_>
        <_>
          <internalNodes>
            0 -1 215 833273790 -1282879442 -1652496896 1067047818
            1104297370 -1532228812 -1313148524 289663706</internalNodes>
          <leafValues>
            -3.6774817109107971e-01 2.0818662643432617e-01</leafValues></_>
        <_>
          <internalNodes>
            0 -1 311 802619327 -142880517 -11540579 -405733928 192958415
            -86382007 780081158 -540773772</internalNodes>
          <leafValues>
            -3.0801454186439514e-01 2.4037444591522217e-01</leafValues></_>
        <_>
          <internalNodes>
            0 -1 293 -67638313 -543177993 -1279526049 -847823062
            -298468434 -335643172 -940310549 -1059062097</internalNodes>
          <leafValues>
            -1.8883517384529114e-01 4.0875297784805298e-01</leafValues></_>
        <_>
          <internalNodes>
            0 -1 167 -281030994 -1561370554 -1027087648 1918813066
            1107684168 2222406 1667228260 -205786582</internalNodes>
          <leafValues>
            -3.5387232899665833e-01 2.1935102343559265e-01</leafValues></_>
        <_>
          <internalNodes>
            0 -1 26 931000062 459467230 -1944388132 -949471766
            1247241567 2121755495 1328565836 1594359136</internalNodes>
          <leafValues>
            -3.9575806260108948e-01 1.7049545049667358e-01</leafValues></_>
        <_>
          <internalNodes>
            0 -1 163 192 1949773038 2109337563 51636111 1908133064
            2107364579 1429008861 86648622</internalNodes>
          <leafValues>
            -4.6342453360557556e-01 1.6284090280532837e-01</leafValues></_>
        <_>
          <internalNodes>
            0 -1 181 -796632276 -321678392 -451821706 -1369581985
            1539042292 -844891926 2074867444 -2130710790</internalNodes>
          <leafValues>
            -4.3997260928153992e-01 1.6460651159286499e-01</leafValues></_>
        <_>
          <internalNodes>
            0 -1 325 796588543 -67977291 2147385203 -1892495369
            167015407 -2686979 -143295145 -808124681</internalNodes>
          <leafValues>
            -2.6318642497062683e-01 2.7534088492393494e-01</leafValues></_>
        <_>
          <internalNodes>
            0 -1 261 504832696 35033454 -1845462124 -1086416374
            -1923361038 680181642 -40006472 145943802</internalNodes>
          <leafValues>
            -4.2799478769302368e-01 1.6585026681423187e-01</leafValues></_></weakClassifiers></_>
    <!-- stage 12 -->
    <_>
      <maxWeakCount>21</maxWeakCount>
      <stageThreshold>-1.9795008897781372e+00</stageThreshold>
      <weakClassifiers>
        <_>
          <internalNodes>
            0 -1 264 1001329973 -1626278640 2107498367 -6373105
            971602933 -1141988437 -1073777699 -33281</internalNodes>
          <leafValues>
            -5.6941771507263184e-01 -7.8202463686466217e-02</leafValues></_>
        <_>
          <internalNodes>
            0 -1 276 -422605312 -421863569 -11241066 -213198342
            -152045708 -1352939517 -134811244 -201330182</internalNodes>
          <leafValues>
            -3.6063763499259949e-01 2.0439521968364716e-01</leafValues></_>
        <_>
          <internalNodes>
            0 -1 55 -268440826 -828382401 -855465880 -289619416
            1912565509 -1077179765 -491829231 -394793916</internalNodes>
          <leafValues>
            -4.2429018020629883e-01 1.7440536618232727e-01</leafValues></_>
        <_>
          <internalNodes>
            0 -1 31 -1880818034 -221586980 -1078030406 -251675760
            -632298759 -1560557403 -341090784 1669854122</internalNodes>
          <leafValues>
            -4.1522178053855896e-01 1.9305644929409027e-01</leafValues></_>
        <_>
          <internalNodes>
            0 -1 97 -1099289762 926307039 -64879682 2066903722
            1652113485 2118538838 -340984228 1331908350</internalNodes>
          <leafValues>
            -3.6990699172019958e-01 1.9723811745643616e-01</leafValues></_>
        <_>
          <internalNodes>
            0 -1 309 119602151 -786437 -8954307 -274669642 1735442431
            -1208549443 -268444225 -604910093</internalNodes>
          <leafValues>
            -2.2957324981689453e-01 3.2147002220153809e-01</leafValues></_>
        <_>
          <internalNodes>
            0 -1 46 -867808574 -1351689491 -326440849 229614235
            518661310 1018686931 2127442619 608318265</internalNodes>
          <leafValues>
            -5.3710639476776123e-01 1.3996593654155731e-01</leafValues></_>
        <_>
          <internalNodes>
            0 -1 135 -245175316 -1781076242 671369892 33723150
            1966364044 72390740 2038432142 104551935</internalNodes>
          <leafValues>
            -4.5257782936096191e-01 1.5517222881317139e-01</leafValues></_>
        <_>
          <internalNodes>
            0 -1 277 -287119456 14732700 -783313932 -1060162081 -3227664
            -2133797552 -135011087 100136667</internalNodes>
          <leafValues>
            -4.3026351928710938e-01 1.6426360607147217e-01</leafValues></_>
        <_>
          <internalNodes>
            0 -1 208 845125888 326283288 -934883977 -1320838761
            -2137531713 -1628585516 1716013693 272756885</internalNodes>
          <leafValues>
            -4.6925592422485352e-01 1.2580397725105286e-01</leafValues></_>
        <_>
          <internalNodes>
            0 -1 320 1878196215 -738216273 -1310745733 265353169
            1602519031 -317806521 -11044558 -269201769</internalNodes>
          <leafValues>
            -2.4660421907901764e-01 2.8688988089561462e-01</leafValues></_>
        <_>
          <internalNodes>
            0 -1 297 -185678720 -1877984507 1532832551 -1054758352
            -1874269796 -90637532 -2143769844 -927077376</internalNodes>
          <leafValues>
            -3.1228131055831909e-01 2.2534008324146271e-01</leafValues></_>
        <_>
          <internalNodes>
            0 -1 84 1081002182 -1851071473 -540187817 1534161630
            26853515 -75067329 1885337319 1936452234</internalNodes>
          <leafValues>
            -4.0402328968048096e-01 1.6524282097816467e-01</leafValues></_>
        <_>
          <internalNodes>
            0 -1 258 -1073760478 -76025865 -1124348432 -513016082
            -268964019 1279645462 -301994497 -707275477</internalNodes>
          <leafValues>
            -2.4621349573135376e-01 2.8011545538902283e-01</leafValues></_>
        <_>
          <internalNodes>
            0 -1 142 -1901330868 786610928 6550726 183492319 756966144
            848543824 853505572 2013263431</internalNodes>
          <leafValues>
            -5.1986110210418701e-01 1.4452916383743286e-01</leafValues></_>
        <_>
          <internalNodes>
            0 -1 99 181833598 2119842271 117792059 2077917178 1476491481
            -5538673 -375693318 1038232950</internalNodes>
          <leafValues>
            -4.0995192527770996e-01 1.7177133262157440e-01</leafValues></_>
        <_>
          <internalNodes>
            0 -1 134 -1088973824 892705084 1564582205 -1120939747
            -1423732559 -1079780237 -1412761156 -1178601061</internalNodes>
          <leafValues>
            -2.7092793583869934e-01 2.5161495804786682e-01</leafValues></_>
        <_>
          <internalNodes>
            0 -1 115 -421811354 1660928766 -565525374 -490187698
            -87856604 1466501242 -638719680 1651957755</internalNodes>
          <leafValues>
            -5.5766910314559937e-01 1.3087554275989532e-01</leafValues></_>
        <_>
          <internalNodes>
            0 -1 286 -81793861 359499951 1877931448 1095695039
            -1762472755 -1879769121 -1480796952 -1060515938</internalNodes>
          <leafValues>
            -2.2201746702194214e-01 3.1639754772186279e-01</leafValues></_>
        <_>
          <internalNodes>
            0 -1 303 -1077476561 1807875731 1568192927 -400755384
            1321602306 -893498401 -31529462 -1945194696</internalNodes>
          <leafValues>
            -2.5791996717453003e-01 2.6128819584846497e-01</leafValues></_>
        <_>
          <internalNodes>
            0 -1 8 -871633746 -620173056 -975213537 -53943616 1236672223
            -286982183 -798919315 -140028653</internalNodes>
          <leafValues>
            -2.7757874131202698e-01 2.4107490479946136e-01</leafValues></_></weakClassifiers></_>
    <!-- stage 13 -->
    <_>
      <maxWeakCount>23</maxWeakCount>
      <stageThreshold>-1.8546894788742065e+00</stageThreshold>
      <weakClassifiers>
        <_>
          <internalNodes>
            0 -1 324 -806158337 -1537 -579602981 -806161425 1570797567
            -71573493 -7340133 -1015833</internalNodes>
          <leafValues>
            -4.7905704379081726e-01 6.2857143580913544e-02</leafValues></_>
        <_>
          <internalNodes>
            0 -1 203 480646965 1066811767 -1669074497 -539086453
            -124698755 -20975153 -67339457 -1074036917</internalNodes>
          <leafValues>
            -3.6540427803993225e-01 1.9079926609992981e-01</leafValues></_>
        <_>
          <internalNodes>
            0 -1 83 -54541001 -201550657 1267177791 -439913061
            1979398199 -1107701063 1062983963 207616959</internalNodes>
          <leafValues>
            -2.8058201074600220e-01 2.6096332073211670e-01</leafValues></_>
        <_>
          <internalNodes>
            0 -1 145 -1493726674 -354422289 -52851026 -522523730
            1514882820 1409663033 -7619580 -237503585</internalNodes>
          <leafValues>
            -4.4213041663169861e-01 1.6270536184310913e-01</leafValues></_>
        <_>
          <internalNodes>
            0 -1 213 -12886261 -976486426 -2105565 -120857095 -50430096
            -804783359 -8964336 -772678093</internalNodes>
          <leafValues>
            -2.2117815911769867e-01 3.1043994426727295e-01</leafValues></_>
        <_>
          <internalNodes>
            0 -1 102 -1345372237 -283970055 -79572513 -2133512
            -338957825 -922056313 -1347685931 -1932753468</internalNodes>
          <leafValues>
            -3.0936175584793091e-01 2.1388688683509827e-01</leafValues></_>
        <_>
          <internalNodes>
            0 -1 35 -568393738 -281226268 1805647774 -603988582
            -71116103 -1141145372 -51416963 2080341466</internalNodes>
          <leafValues>
            -3.5204038023948669e-01 1.8433511257171631e-01</leafValues></_>
        <_>
          <internalNodes>
            0 -1 30 -1498518018 1018351454 176073202 -150562306
            -95271841 2131906638 -383522545 1577343359</internalNodes>
          <leafValues>
            -4.1877120733261108e-01 1.5722346305847168e-01</leafValues></_>
        <_>
          <internalNodes>
            0 -1 256 169278364 100855726 -818437328 -1054219200
            1612487438 174375470 924796886 1709033455</internalNodes>
          <leafValues>
            -3.5341569781303406e-01 1.8936276435852051e-01</leafValues></_>
        <_>
          <internalNodes>
            0 -1 211 1359134880 1463004068 -123742249 1662363079
            1027515276 1908449513 -687266677 1742172298</internalNodes>
          <leafValues>
            -3.5667315125465393e-01 1.8739263713359833e-01</leafValues></_>
        <_>
          <internalNodes>
            0 -1 178 -822212854 -2021903595 -698639622 -539769949
            609334265 -50280003 1533885131 -716341253</internalNodes>
          <leafValues>
            -2.6897221803665161e-01 2.4281626939773560e-01</leafValues></_>
        <_>
          <internalNodes>
            0 -1 328 260057815 -673205985 1061274542 -1988588666
            227547740 -542981989 -618967923 1329626999</internalNodes>
          <leafValues>
            -3.8644099235534668e-01 1.7719896137714386e-01</leafValues></_>
        <_>
          <internalNodes>
            0 -1 1 -22290398 -142055424 1853908991 -7013307 -866786111
            -61551551 481918190 -185370813</internalNodes>
          <leafValues>
            -2.6360189914703369e-01 2.5323104858398438e-01</leafValues></_>
        <_>
          <internalNodes>
            0 -1 137 -153097618 -224427889 -1877227418 -220211794
            -636945593 1651708011 -1309936798 -174066705</internalNodes>
          <leafValues>
            -2.8389030694961548e-01 2.6247873902320862e-01</leafValues></_>
        <_>
          <internalNodes>
            0 -1 299 -437928975 960420868 -716282135 -1846740864
            787413405 -1995652712 -1308913000 75538360</internalNodes>
          <leafValues>
            -3.6768344044685364e-01 1.7115053534507751e-01</leafValues></_>
        <_>
          <internalNodes>
            0 -1 191 -100663904 679889595 2132406688 -2145361773
            -412761856 1354162649 -805706912 1084424171</internalNodes>
          <leafValues>
            -5.2227765321731567e-01 1.3034474849700928e-01</leafValues></_>
        <_>
          <internalNodes>
            0 -1 196 -291524556 1577108184 -821968772 1046429842
            435126975 785051659 1307877610 208848567</internalNodes>
          <leafValues>
            -3.6916929483413696e-01 1.7367902398109436e-01</leafValues></_>
        <_>
          <internalNodes>
            0 -1 267 -655360237 286045744 2146071455 292497728
            -779423352 -1077546344 -1680968870 -506736381</internalNodes>
          <leafValues>
            -2.3038986325263977e-01 2.9184409976005554e-01</leafValues></_>
        <_>
          <internalNodes>
            0 -1 177 -1074877686 1392202167 -733678354 1660940510
            1129999195 1125607489 -1115424626 -185864193</internalNodes>
          <leafValues>
            -2.6216807961463928e-01 2.5578150153160095e-01</leafValues></_>
        <_>
          <internalNodes>
            0 -1 315 1316150783 -16777225 -553685073 -303923273
            510680437 -1073746049 -1174470661 -987409</internalNodes>
          <leafValues>
            -2.0093911886215210e-01 3.3414870500564575e-01</leafValues></_>
        <_>
          <internalNodes>
            0 -1 193 -850439764 998858517 1867479444 147394645 903662588
            418037420 148814044 146369980</internalNodes>
          <leafValues>
            -5.0328475236892700e-01 1.2982283532619476e-01</leafValues></_>
        <_>
          <internalNodes>
            0 -1 251 1690756766 448315528 1712501181 -1455750400
            -522706676 545434149 1622995199 910417</internalNodes>
          <leafValues>
            -3.6075446009635925e-01 1.9381171464920044e-01</leafValues></_>
        <_>
          <internalNodes>
            0 -1 105 -1893752448 201850851 -1663762940 213179919
            -85772175 -62986260 -617551036 201060017</internalNodes>
          <leafValues>
            -4.4076961278915405e-01 1.5632660686969757e-01</leafValues></_></weakClassifiers></_>
    <!-- stage 14 -->
    <_>
      <maxWeakCount>24</maxWeakCount>
      <stageThreshold>-1.7953276634216309e+00</stageThreshold>
      <weakClassifiers>
        <_>
          <internalNodes>
            0 -1 310 -271384577 -2099740 -1658979841 -5188651 1286665211
            -2719081 -607912001 -535561</internalNodes>
          <leafValues>
            -4.5498925447463989e-01 1.1884058266878128e-01</leafValues></_>
        <_>
          <internalNodes>
            0 -1 138 -18878866 1524626367 -602002194 -219490130 -315044
            2004351015 -203755916 -209978625</internalNodes>
          <leafValues>
            -3.3886775374412537e-01 1.9918695092201233e-01</leafValues></_>
        <_>
          <internalNodes>
            0 -1 85 654190375 -15283721 -8910465 -111106259 1190758591
            -1413747357 1602949023 265225291</internalNodes>
          <leafValues>
            -3.6931926012039185e-01 1.7837040126323700e-01</leafValues></_>
        <_>
          <internalNodes>
            0 -1 13 -25178486 -566170088 -828919997 -865285076
            1634143754 -1434263512 1130964738 1733784896</internalNodes>
          <leafValues>
            -3.3004835247993469e-01 2.3477073013782501e-01</leafValues></_>
        <_>
          <internalNodes>
            0 -1 204 1431517556 1040112883 -748942373 -2190180
            2100197844 -33902350 1535998974 -1345570270</internalNodes>
          <leafValues>
            -3.1101879477500916e-01 2.0453111827373505e-01</leafValues></_>
        <_>
          <internalNodes>
            0 -1 327 -806292481 -612368401 -268448321 -1349488945
            1207197551 -1 -165201 -537821353</internalNodes>
          <leafValues>
            -2.0830173790454865e-01 3.1443786621093750e-01</leafValues></_>
        <_>
          <internalNodes>
            0 -1 70 -355549692 -1964625837 -1190866569 584774450
            -119588073 -846294560 -558122638 43774039</internalNodes>
          <leafValues>
            -4.8878607153892517e-01 1.3327659666538239e-01</leafValues></_>
        <_>
          <internalNodes>
            0 -1 259 -1345867998 -1564806400 1465821616 -256191622
            -391386618 1141940770 -1531992972 -143140369</internalNodes>
          <leafValues>
            -3.4774938225746155e-01 1.8839138746261597e-01</leafValues></_>
        <_>
          <internalNodes>
            0 -1 80 683342588 1754674687 1024929054 2137096042
            1510606884 -272409892 2125971727 2066448138</internalNodes>
          <leafValues>
            -3.2222810387611389e-01 2.0556631684303284e-01</leafValues></_>
        <_>
          <internalNodes>
            0 -1 231 -486606870 -553198457 -1063028862 -1350406630
            1618789371 214099522 1204021074 1970234226</internalNodes>
          <leafValues>
            -3.6967834830284119e-01 1.8242524564266205e-01</leafValues></_>
        <_>
          <internalNodes>
            0 -1 38 -458036226 -1090587169 1578532350 -571304030
            -611388710 -9705317 -641533966 1784108055</internalNodes>
          <leafValues>
            -3.9479118585586548e-01 1.5575686097145081e-01</leafValues></_>
        <_>
          <internalNodes>
            0 -1 232 1571796898 1109951498 -246043343 -1224130422
            -794910776 -846686208 1161261215 627834583</internalNodes>
          <leafValues>
            -2.6728385686874390e-01 2.4823336303234100e-01</leafValues></_>
        <_>
          <internalNodes>
            0 -1 165 -828191026 -261951928 43446418 -1258103190
            -1764837956 541905984 1042744319 2071929359</internalNodes>
          <leafValues>
            -3.0987340211868286e-01 2.0843364298343658e-01</leafValues></_>
        <_>
          <internalNodes>
            0 -1 292 -1476712683 2037361655 -167779017 -508304022
            -1073874953 -2115119363 -1108477714 -1057296410</internalNodes>
          <leafValues>
            -1.9888401031494141e-01 3.1577584147453308e-01</leafValues></_>
        <_>
          <internalNodes>
            0 -1 243 -754473216 402119218 1595379159 286429991
            -2030660673 -791622685 -1921540652 1081472839</internalNodes>
          <leafValues>
            -3.9635950326919556e-01 1.5227237343788147e-01</leafValues></_>
        <_>
          <internalNodes>
            0 -1 308 773910455 -3485419 -1329211350 261132728 25213691
            -1363425783 1517994431 267408183</internalNodes>
          <leafValues>
            -3.3848315477371216e-01 1.9439305365085602e-01</leafValues></_>
        <_>
          <internalNodes>
            0 -1 119 -354761850 2036701071 -1090999054 -478050898
            1083395407 354796357 1755306491 -176685137</internalNodes>
          <leafValues>
            -2.7951371669769287e-01 2.1707396209239960e-01</leafValues></_>
        <_>
          <internalNodes>
            0 -1 37 317398911 -1149489185 749742216 -1481451790
            1106380252 -79202217 1121733706 -280990161</internalNodes>
          <leafValues>
            -2.5662124156951904e-01 2.4411079287528992e-01</leafValues></_>
        <_>
          <internalNodes>
            0 -1 52 -117574865 -363807360 -28322849 -286590323
            1431781722 1684485962 1945105008 -261645232</internalNodes>
          <leafValues>
            -2.6912355422973633e-01 2.3614525794982910e-01</leafValues></_>
        <_>
          <internalNodes>
            0 -1 154 -620811724 232789596 -576749738 -1371022178
            526048605 798605451 1234378910 796716777</internalNodes>
          <leafValues>
            -3.8776293396949768e-01 1.6674621403217316e-01</leafValues></_>
        <_>
          <internalNodes>
            0 -1 192 1320984062 1768237801 -1619348854 1467815564
            -573804546 1428686978 222134410 -1630786817</internalNodes>
          <leafValues>
            -3.2355952262878418e-01 1.8365649878978729e-01</leafValues></_>
        <_>
          <internalNodes>
            0 -1 171 -1357928730 12775144 -643206874 -856031860 25654852
            1151578859 1860324676 1173871383</internalNodes>
          <leafValues>
            -5.8951401710510254e-01 1.1626372486352921e-01</leafValues></_>
        <_>
          <internalNodes>
            0 -1 101 -1594749677 -1185352288 -159122979 -674236963
            1787804089 -624434385 143444415 3227941</internalNodes>
          <leafValues>
            -4.7863775491714478e-01 1.2404844909906387e-01</leafValues></_>
        <_>
          <internalNodes>
            0 -1 283 1003427632 -1558523239 -2063558528 -842669536
            835577589 -1148509970 2044053500 209649138</internalNodes>
          <leafValues>
            -3.7523016333580017e-01 1.6603194177150726e-01</leafValues></_></weakClassifiers></_>
    <!-- stage 15 -->
    <_>
      <maxWeakCount>22</maxWeakCount>
      <stageThreshold>-1.6387032270431519e+00</stageThreshold>
      <weakClassifiers>
        <_>
          <internalNodes>
            0 -1 173 -549453825 -78270568 1968116474 -9344007 1225124827
            -607802643 2108549530 -2229313</internalNodes>
          <leafValues>
            -4.6428570151329041e-01 6.8082451820373535e-02</leafValues></_>
        <_>
          <internalNodes>
            0 -1 69 -320410906 -977004274 -192944677 1183252462
            1350392335 -347535329 1944560107 1196782158</internalNodes>
          <leafValues>
            -4.4102880358695984e-01 1.2545336782932281e-01</leafValues></_>
        <_>
          <internalNodes>
            0 -1 272 -1426617036 -1291896449 -660515713 -1458455713
            -1093944847 -68173555 -83952676 -2011001079</internalNodes>
          <leafValues>
            -2.9420372843742371e-01 2.1399195492267609e-01</leafValues></_>
        <_>
          <internalNodes>
            0 -1 317 1869938687 -983041 -278561 1274081005 250642231
            -1079181313 -268604545 -539730315</internalNodes>
          <leafValues>
            -1.9714587926864624e-01 3.0365863442420959e-01</leafValues></_>
        <_>
          <internalNodes>
            0 -1 285 1060263412 -1173168230 1335480944 -1078437930
            1072393979 -1112842225 787439533 -1610646145</internalNodes>
          <leafValues>
            -3.0387300252914429e-01 2.0299389958381653e-01</leafValues></_>
        <_>
          <internalNodes>
            0 -1 287 -336613598 -279505057 1973146108 1944044799
            -124005547 -1972931994 -1516514828 -1049103889</internalNodes>
          <leafValues>
            -2.8299552202224731e-01 2.2444692254066467e-01</leafValues></_>
        <_>
          <internalNodes>
            0 -1 326 -843908097 -331905 670531581 1341186031 263483387
            -1581081 -419983889 -537559225</internalNodes>
          <leafValues>
            -2.0440825819969177e-01 3.1902948021888733e-01</leafValues></_>
        <_>
          <internalNodes>
            0 -1 123 -213522880 794546385 -955133954 786156892
            -893654403 771478507 1456010884 13368970</internalNodes>
          <leafValues>
            -5.8829480409622192e-01 1.2146457284688950e-01</leafValues></_>
        <_>
          <internalNodes>
            0 -1 117 -33561365 -642084881 1727915622 837017262
            1140261599 1093570126 -1284123169 -152567857</internalNodes>
          <leafValues>
            -2.1139343082904816e-01 2.8635939955711365e-01</leafValues></_>
        <_>
          <internalNodes>
            0 -1 5 -826126618 -1961891339 1858476149 682200959 13050110
            -876467211 752428506 623014487</internalNodes>
          <leafValues>
            -5.4625928401947021e-01 9.5675013959407806e-02</leafValues></_>
        <_>
          <internalNodes>
            0 -1 32 -2139695361 84934686 -824838922 -47670096 1191526620
            -1392294532 -72089654 2131189718</internalNodes>
          <leafValues>
            -3.0014383792877197e-01 2.0279978215694427e-01</leafValues></_>
        <_>
          <internalNodes>
            0 -1 68 -26284174 -285331716 1603624567 1775148372
            1150973302 1872869800 2080079219 2067680119</internalNodes>
          <leafValues>
            -3.2038769125938416e-01 1.9053830206394196e-01</leafValues></_>
        <_>
          <internalNodes>
            0 -1 223 457057876 -1630522889 -255592553 -539442211
            -73827855 -406355829 -28681515 -1879298320</internalNodes>
          <leafValues>
            -3.8221511244773865e-01 1.6876055300235748e-01</leafValues></_>
        <_>
          <internalNodes>
            0 -1 94 -1356638390 -529867009 -317722908 -1440809457
            1027038303 -234628149 -587202714 -1464533281</internalNodes>
          <leafValues>
            -3.3159556984901428e-01 1.9122454524040222e-01</leafValues></_>
        <_>
          <internalNodes>
            0 -1 236 -1483791950 1078805397 -682506568 1395771828
            -1621775922 1291971320 -173308465 1360260895</internalNodes>
          <leafValues>
            -2.9330217838287354e-01 2.1786403656005859e-01</leafValues></_>
        <_>
          <internalNodes>
            0 -1 157 -1843415516 302010732 1464222449 -1285448673
            -461641155 -653672333 393412875 605151223</internalNodes>
          <leafValues>
            -4.2441263794898987e-01 1.5107052028179169e-01</leafValues></_>
        <_>
          <internalNodes>
            0 -1 312 776010751 -50408449 -850733729 1608554962
            1857309661 -74456838 -410039426 1810242116</internalNodes>
          <leafValues>
            -2.8094580769538879e-01 2.3031817376613617e-01</leafValues></_>
        <_>
          <internalNodes>
            0 -1 0 -1416659169 -391121934 -519933674 -1105538202
            -1450542082 -880148246 837170664 -2101296128</internalNodes>
          <leafValues>
            -2.7609881758689880e-01 2.2351212799549103e-01</leafValues></_>
        <_>
          <internalNodes>
            0 -1 288 682802154 -1283415140 -1063791708 851276296
            -2129659603 151685760 55558620 100483217</internalNodes>
          <leafValues>
            -3.4862181544303894e-01 1.7688778042793274e-01</leafValues></_>
        <_>
          <internalNodes>
            0 -1 54 -755764738 1366277678 -270656161 -17600851
            1669038022 360382451 1733131339 1968176606</internalNodes>
          <leafValues>
            -2.4707187712192535e-01 2.5564268231391907e-01</leafValues></_>
        <_>
          <internalNodes>
            0 -1 36 810133364 -1828787889 -1908334056 -1442797552
            1333680636 -1355294560 -1258678200 -1400459744</internalNodes>
          <leafValues>
            -3.7592437863349915e-01 1.5809524059295654e-01</leafValues></_>
        <_>
          <internalNodes>
            0 -1 25 -1231602970 1256210466 -192741278 -1571883414
            1916958192 77852818 1463235447 1681908991</internalNodes>
          <leafValues>
            -6.1165475845336914e-01 1.0501265525817871e-01</leafValues></_></weakClassifiers></_>
    <!-- stage 16 -->
    <_>
      <maxWeakCount>27</maxWeakCount>
      <stageThreshold>-1.8244577646255493e+00</stageThreshold>
      <weakClassifiers>
        <_>
          <internalNodes>
            0 -1 152 -291538945 -58401 -752954529 2130859871 -1150582917
            -76603317 -7349412 -1087230600</internalNodes>
          <leafValues>
            -5.5953472852706909e-01 -1.0451453179121017e-01</leafValues></_>
        <_>
          <internalNodes>
            0 -1 249 -856757782 -898727250 -930425168 -523182102
            1506533772 82024287 -761613344 -202128966</internalNodes>
          <leafValues>
            -3.0556666851043701e-01 2.0125326514244080e-01</leafValues></_>
        <_>
          <internalNodes>
            0 -1 300 -1097761 -1573127433 -777465500 -1065291696
            -8511590 -68190466 -4194040 -863189302</internalNodes>
          <leafValues>
            -2.2170296311378479e-01 2.5991600751876831e-01</leafValues></_>
        <_>
          <internalNodes>
            0 -1 188 -653406006 1360578628 377609273 -167782389
            396436878 164215116 1202587822 1912537135</internalNodes>
          <leafValues>
            -2.7451047301292419e-01 2.1146228909492493e-01</leafValues></_>
        <_>
          <internalNodes>
            0 -1 322 258145247 -67895361 -71303301 263255547 1471446902
            -269189761 -49180 -810487947</internalNodes>
          <leafValues>
            -2.0768816769123077e-01 2.7668792009353638e-01</leafValues></_>
        <_>
          <internalNodes>
            0 -1 133 1347406030 1390144692 1623974624 1942423757
            -900999281 1078710283 -819217178 1734854955</internalNodes>
          <leafValues>
            -2.8865933418273926e-01 2.0769716799259186e-01</leafValues></_>
        <_>
          <internalNodes>
            0 -1 262 -1406490848 -1475691594 -1746349352 -1061391958
            -738481387 363037441 -747642372 -704644611</internalNodes>
          <leafValues>
            -3.5441708564758301e-01 1.5346650779247284e-01</leafValues></_>
        <_>
          <internalNodes>
            0 -1 88 -220552506 1357826126 -1530795802 879182434
            2009788875 1145651282 1433379275 1979183099</internalNodes>
          <leafValues>
            -3.3288955688476562e-01 1.8885523080825806e-01</leafValues></_>
        <_>
          <internalNodes>
            0 -1 11 -306527709 -762062913 -283628743 -946500967
            -228230539 -1632509477 -351830825 1163349333</internalNodes>
          <leafValues>
            -3.3638885617256165e-01 1.6013875603675842e-01</leafValues></_>
        <_>
          <internalNodes>
            0 -1 209 1056964352 166621935 -1263016975 1961617401
            -1912411115 258401332 787741204 15807296</internalNodes>
          <leafValues>
            -4.7720804810523987e-01 1.2047139555215836e-01</leafValues></_>
        <_>
          <internalNodes>
            0 -1 222 1173623765 -1177271650 1171748255 -10666610
            758900927 -1378765871 636973054 265240551</internalNodes>
          <leafValues>
            -2.8240463137626648e-01 2.1054700016975403e-01</leafValues></_>
        <_>
          <internalNodes>
            0 -1 76 -1420894834 -1344383926 -327887398 -1731277678
            -301257996 -5832697 -54887116 266862411</internalNodes>
          <leafValues>
            -4.0613988041877747e-01 1.4796316623687744e-01</leafValues></_>
        <_>
          <internalNodes>
            0 -1 268 -1722813022 327760390 -214719535 1403205802
            -2029809272 -1458882743 -1745034349 -505946389</internalNodes>
          <leafValues>
            -2.3028440773487091e-01 2.5270330905914307e-01</leafValues></_>
        <_>
          <internalNodes>
            0 -1 116 -286331154 1215268495 -32063452 1917489798
            -57818875 1159948356 1112768576 -176685529</internalNodes>
          <leafValues>
            -2.7953344583511353e-01 2.1676225960254669e-01</leafValues></_>
        <_>
          <internalNodes>
            0 -1 316 1341191647 -67649545 1877999549 804543667 250881461
            -2 -1074429989 -873138193</internalNodes>
          <leafValues>
            -1.9315929710865021e-01 3.1198078393936157e-01</leafValues></_>
        <_>
          <internalNodes>
            0 -1 280 -1519409478 1650589631 -1359056906 -1170981010
            -772294904 1165292916 -142621602 -1745617890</internalNodes>
          <leafValues>
            -2.2681538760662079e-01 2.5710019469261169e-01</leafValues></_>
        <_>
          <internalNodes>
            0 -1 216 939431818 856294342 897585570 487880994 575548312
            290884484 -1565867482 831651576</internalNodes>
          <leafValues>
            -3.9219310879707336e-01 1.4929848909378052e-01</leafValues></_>
        <_>
          <internalNodes>
            0 -1 330 1171323903 -69791645 -1255626657 804258778
            1129348091 -1181810077 -1421632838 1441899263</internalNodes>
          <leafValues>
            -2.2972287237644196e-01 2.4972943961620331e-01</leafValues></_>
        <_>
          <internalNodes>
            0 -1 23 -341694266 1657554829 -26562878 15470254 -334019324
            1882503359 -248143930 352369599</internalNodes>
          <leafValues>
            -5.9597170352935791e-01 9.8075345158576965e-02</leafValues></_>
        <_>
          <internalNodes>
            0 -1 298 929541415 -1682465898 640841012 -580570528
            -1702970495 -1412844609 -168777952 -1966069592</internalNodes>
          <leafValues>
            -2.7046498656272888e-01 2.2110922634601593e-01</leafValues></_>
        <_>
          <internalNodes>
            0 -1 247 -1045441622 -782511715 -778046094 2046770894
            -2125467208 -1924026908 96466428 96171259</internalNodes>
          <leafValues>
            -2.7005589008331299e-01 2.3047864437103271e-01</leafValues></_>
        <_>
          <internalNodes>
            0 -1 244 -922769389 1907468909 -281023169 -1143210051
            -258355535 -625231884 -1181675889 -2013015149</internalNodes>
          <leafValues>
            -2.3553368449211121e-01 2.6427298784255981e-01</leafValues></_>
        <_>
          <internalNodes>
            0 -1 176 1603638584 1802830677 1503545560 -237950024
            166128635 -1318782023 -303721745 -53662485</internalNodes>
          <leafValues>
            -2.4219298362731934e-01 2.5256362557411194e-01</leafValues></_>
        <_>
          <internalNodes>
            0 -1 305 2113352478 -1123262488 -1287389104 -2054868210
            1229273032 -1936724054 -782415654 -829439540</internalNodes>
          <leafValues>
            -2.6754224300384521e-01 2.4291835725307465e-01</leafValues></_>
        <_>
          <internalNodes>
            0 -1 307 259047423 -1032926482 1087939933 -1290780838
            262423467 -745944437 -1979641857 256926205</internalNodes>
          <leafValues>
            -3.2729011774063110e-01 1.8745130300521851e-01</leafValues></_>
        <_>
          <internalNodes>
            0 -1 18 -58833869 -864163550 1074241942 -2047907763
            -521559923 -892574981 -2074580883 -385949694</internalNodes>
          <leafValues>
            -2.5197589397430420e-01 2.2731246054172516e-01</leafValues></_>
        <_>
          <internalNodes>
            0 -1 103 38675072 1870524601 155719159 25470357 663261610
            798040539 1875033441 64619307</internalNodes>
          <leafValues>
            -5.3247064352035522e-01 1.0594063252210617e-01</leafValues></_></weakClassifiers></_>
    <!-- stage 17 -->
    <_>
      <maxWeakCount>26</maxWeakCount>
      <stageThreshold>-1.6937670707702637e+00</stageThreshold>
      <weakClassifiers>
        <_>
          <internalNodes>
            0 -1 294 -67110985 -207094297 -615252993 1899493239
            -1831869963 -389324337 -91029592 -1066207817</internalNodes>
          <leafValues>
            -4.9050855636596680e-01 -3.2676812261343002e-02</leafValues></_>
        <_>
          <internalNodes>
            0 -1 120 -84169042 -109205505 -359526854 -150755330
            1222099668 1483855572 -104866386 -413664321</internalNodes>
          <leafValues>
            -2.6879063248634338e-01 2.1234484016895294e-01</leafValues></_>
        <_>
          <internalNodes>
            0 -1 42 -391975921 -153300529 -687224532 -542708338
            1809271309 2143451147 -1414534321 2137485655</internalNodes>
          <leafValues>
            -3.4074980020523071e-01 1.5951448678970337e-01</leafValues></_>
        <_>
          <internalNodes>
            0 -1 175 -1677734418 555167264 -419715124 724416302
            1463809516 894857157 -788597554 -139722817</internalNodes>
          <leafValues>
            -2.1297314763069153e-01 2.7852827310562134e-01</leafValues></_>
        <_>
          <internalNodes>
            0 -1 257 2079801123 1138981803 1842994465 -640620880
            1551095600 1086710783 -370718460 -1058996290</internalNodes>
          <leafValues>
            -3.2147124409675598e-01 1.6194847226142883e-01</leafValues></_>
        <_>
          <internalNodes>
            0 -1 73 644803886 -1970355780 -728113161 -4009278 60713403
            217713323 1431008373 1204176087</internalNodes>
          <leafValues>
            -4.8404583334922791e-01 1.2640966475009918e-01</leafValues></_>
        <_>
          <internalNodes>
            0 -1 321 -806158401 -4718729 -1217 -877607443 1206034171
            -65686 -268984449 2145654391</internalNodes>
          <leafValues>
            -2.0218840241432190e-01 2.8466311097145081e-01</leafValues></_>
        <_>
          <internalNodes>
            0 -1 153 1414838480 1962196084 1296170874 2110708222
            1871789053 815046881 1875279743 803090231</internalNodes>
          <leafValues>
            -3.3463063836097717e-01 1.6371352970600128e-01</leafValues></_>
        <_>
          <internalNodes>
            0 -1 309 -940376097 -147062802 -1074307073 -810352709
            1196490215 -4163 -830505217 -604766489</internalNodes>
          <leafValues>
            -1.6058915853500366e-01 3.4370255470275879e-01</leafValues></_>
        <_>
          <internalNodes>
            0 -1 14 -56840536 -16857297 -20261954 -293025558 626285652
            -11875534 1969974890 -462042036</internalNodes>
          <leafValues>
            -2.8240475058555603e-01 2.0027892291545868e-01</leafValues></_>
        <_>
          <internalNodes>
            0 -1 164 201982978 646583890 -203697673 -239592547 592164837
            597344264 -5519899 -773289664</internalNodes>
          <leafValues>
            -4.2587956786155701e-01 1.1949893832206726e-01</leafValues></_>
        <_>
          <internalNodes>
            0 -1 57 -1619010982 1254024440 -1740464390 -162153766
            1866201342 -854382247 911954651 2013737809</internalNodes>
          <leafValues>
            -2.8264087438583374e-01 1.8849925696849823e-01</leafValues></_>
        <_>
          <internalNodes>
            0 -1 246 -353699854 -607258262 643187845 -1281274194
            -1471157546 -1945568770 95905350 56226722</internalNodes>
          <leafValues>
            -3.0687275528907776e-01 1.7540566623210907e-01</leafValues></_>
        <_>
          <internalNodes>
            0 -1 156 1743515223 585540924 -965033740 -59259851
            1896071541 1647536353 41993220 -54794681</internalNodes>
          <leafValues>
            -3.0927085876464844e-01 1.7126694321632385e-01</leafValues></_>
        <_>
          <internalNodes>
            0 -1 4 -100482382 1529132409 -834261573 -823092510
            -1146861835 -339832338 -366207459 1425229041</internalNodes>
          <leafValues>
            -2.9441609978675842e-01 1.7572747170925140e-01</leafValues></_>
        <_>
          <internalNodes>
            0 -1 179 743335644 -1528270625 -787835942 2004513754
            176978168 -214089600 -1278732052 939530488</internalNodes>
          <leafValues>
            -5.6066167354583740e-01 1.0474315285682678e-01</leafValues></_>
        <_>
          <internalNodes>
            0 -1 170 -8394138 215682715 -262372664 821457514 1863541319
            1145074438 -207099124 -230185438</internalNodes>
          <leafValues>
            -2.6567733287811279e-01 2.1646989881992340e-01</leafValues></_>
        <_>
          <internalNodes>
            0 -1 62 887063806 -1280008834 -732192546 -350176132
            1079387322 -121429156 -1205171156 1783852159</internalNodes>
          <leafValues>
            -2.9807099699974060e-01 1.8780769407749176e-01</leafValues></_>
        <_>
          <internalNodes>
            0 -1 210 914260608 863011225 -752095203 -1610646669
            2036246665 1840179950 1044040329 218574875</internalNodes>
          <leafValues>
            -3.3020609617233276e-01 1.6890242695808411e-01</leafValues></_>
        <_>
          <internalNodes>
            0 -1 112 2061446670 1756816414 -66943826 1650383290
            -99878542 1666025998 -196347104 -243272836</internalNodes>
          <leafValues>
            -4.0697365999221802e-01 1.4719024300575256e-01</leafValues></_>
        <_>
          <internalNodes>
            0 -1 325 263252479 -68026507 -81987 1594118069 267680767
            -136380547 -276987937 -808099997</internalNodes>
          <leafValues>
            -1.8517082929611206e-01 2.9918217658996582e-01</leafValues></_>
        <_>
          <internalNodes>
            0 -1 219 -822717256 1862168759 1725395961 1284244787
            1527489436 247772750 1593496500 148338495</internalNodes>
          <leafValues>
            -3.7466040253639221e-01 1.3871760666370392e-01</leafValues></_>
        <_>
          <internalNodes>
            0 -1 47 -290566656 1782235489 -382627562 1647022311
            1053241419 -1880230917 -1363204033 537014576</internalNodes>
          <leafValues>
            -5.3134363889694214e-01 1.0682318359613419e-01</leafValues></_>
        <_>
          <internalNodes>
            0 -1 296 -17841613 857207615 57615706 50439043 -1359283273
            -1902521979 -840461366 -2136540483</internalNodes>
          <leafValues>
            -2.4103577435016632e-01 2.4344256520271301e-01</leafValues></_>
        <_>
          <internalNodes>
            0 -1 229 1496302466 1391717706 1616893971 -829686614
            -1157461284 -925728012 857678203 892233502</internalNodes>
          <leafValues>
            -2.6659569144248962e-01 2.1262080967426300e-01</leafValues></_>
        <_>
          <internalNodes>
            0 -1 190 -1346662844 1919844618 -896209124 -501612620
            1951024260 388288708 1686828053 -218891083</internalNodes>
          <leafValues>
            -3.3934989571571350e-01 1.6556341946125031e-01</leafValues></_></weakClassifiers></_>
    <!-- stage 18 -->
    <_>
      <maxWeakCount>27</maxWeakCount>
      <stageThreshold>-1.6512815952301025e+00</stageThreshold>
      <weakClassifiers>
        <_>
          <internalNodes>
            0 -1 166 -614468865 -677394305 -535632193 -8993 -567545713
            1846476034 -401634305 -4468837</internalNodes>
          <leafValues>
            -4.2059552669525146e-01 2.4097788333892822e-01</leafValues></_>
        <_>
          <internalNodes>
            0 -1 150 1450489302 1643413713 760348126 467113695
            1822533885 2038729370 1573092343 1073687330</internalNodes>
          <leafValues>
            -3.7916913628578186e-01 1.3887122273445129e-01</leafValues></_>
        <_>
          <internalNodes>
            0 -1 314 1274085239 -136317057 -2129268686 46942171
            102779717 -101729597 -571681976 -806302468</internalNodes>
          <leafValues>
            -2.5765421986579895e-01 2.1738018095493317e-01</leafValues></_>
        <_>
          <internalNodes>
            0 -1 126 -79709952 858167094 -1518887113 -1546643180
            285296181 -1884381931 1370845489 1505299</internalNodes>
          <leafValues>
            -4.7171309590339661e-01 1.1696811765432358e-01</leafValues></_>
        <_>
          <internalNodes>
            0 -1 218 -38881654 -1889166751 -1363642208 2012297464
            1308616410 -1795404648 1499325630 1174089611</internalNodes>
          <leafValues>
            -2.4105063080787659e-01 2.6040491461753845e-01</leafValues></_>
        <_>
          <internalNodes>
            0 -1 159 2019441552 -1734536417 1376982493 -115796783
            1938177928 -175386881 1937923387 -2012535894</internalNodes>
          <leafValues>
            -2.5279837846755981e-01 2.2425295412540436e-01</leafValues></_>
        <_>
          <internalNodes>
            0 -1 327 185773055 -1622298417 -510746401 257477062
            1204845430 -1969501029 -254065858 1332764531</internalNodes>
          <leafValues>
            -3.5653421282768250e-01 1.5960985422134399e-01</leafValues></_>
        <_>
          <internalNodes>
            0 -1 34 -233638154 -1839944529 -1069292134 2098396794
            671764952 -660113365 1518951486 1594587851</internalNodes>
          <leafValues>
            -3.3427798748016357e-01 1.7934437096118927e-01</leafValues></_>
        <_>
          <internalNodes>
            0 -1 306 -907022685 -2142519309 -1324948582 -2130184698
            1839854309 -1584510837 1990042120 -1063851066</internalNodes>
          <leafValues>
            -2.4956570565700531e-01 2.4092528223991394e-01</leafValues></_>
        <_>
          <internalNodes>
            0 -1 19 -629727636 -1560619555 -1195327932 -1364787992
            862137110 1294252554 1079071828 -467612212</internalNodes>
          <leafValues>
            -3.4197971224784851e-01 1.6951969265937805e-01</leafValues></_>
        <_>
          <internalNodes>
            0 -1 195 -100683986 1654102831 -702840630 -1030545402
            2072648005 1611342339 -89157218 -234886161</internalNodes>
          <leafValues>
            -2.9354712367057800e-01 1.9788868725299835e-01</leafValues></_>
        <_>
          <internalNodes>
            0 -1 212 338645162 2026055489 -278139713 -682180769
            880136077 1063091194 926724523 -1074793281</internalNodes>
          <leafValues>
            -2.1808794140815735e-01 2.5944253802299500e-01</leafValues></_>
        <_>
          <internalNodes>
            0 -1 238 111676192 -1550266256 1502970192 -245591852
            957068087 1947240577 -1286636812 -725632769</internalNodes>
          <leafValues>
            -3.0802708864212036e-01 1.8766883015632629e-01</leafValues></_>
        <_>
          <internalNodes>
            0 -1 172 1574931212 1363522471 -518938594 693643950
            1758528335 1443954691 -213851424 -145372633</internalNodes>
          <leafValues>
            -2.3829364776611328e-01 2.3525106906890869e-01</leafValues></_>
        <_>
          <internalNodes>
            0 -1 228 -108007006 1541909314 -316995759 110872230
            -839255654 193247880 69056267 1460102939</internalNodes>
          <leafValues>
            -2.8674826025962830e-01 2.0056878030300140e-01</leafValues></_>
        <_>
          <internalNodes>
            0 -1 17 -1460223328 587192462 -112032281 545491086
            1005174063 52625104 -337667889 259244251</internalNodes>
          <leafValues>
            -4.5314046740531921e-01 1.2861514091491699e-01</leafValues></_>
        <_>
          <internalNodes>
            0 -1 319 1262551039 -67108997 -1074790403 -76517377
            267450108 -638582791 -1342447681 -819209</internalNodes>
          <leafValues>
            -1.4755184948444366e-01 4.4165953993797302e-01</leafValues></_>
        <_>
          <internalNodes>
            0 -1 79 181849087 991342172 700021951 2112847274 1911046172
            -327740648 -588118864 -67936453</internalNodes>
          <leafValues>
            -2.1700142323970795e-01 2.7225330471992493e-01</leafValues></_>
        <_>
          <internalNodes>
            0 -1 21 -1949310157 -2066548341 21672973 -1903679482
            -1622166983 -901721184 -1962046712 -2110230752</internalNodes>
          <leafValues>
            -3.1937661767005920e-01 1.8585699796676636e-01</leafValues></_>
        <_>
          <internalNodes>
            0 -1 10 -16839490 -40893792 1578269497 -587146546 863132188
            -61431747 829245311 2004121465</internalNodes>
          <leafValues>
            -2.6260176301002502e-01 2.2571319341659546e-01</leafValues></_>
        <_>
          <internalNodes>
            0 -1 197 1201729948 526045398 1320703484 257366042
            -242496772 1485946753 1871455604 221099698</internalNodes>
          <leafValues>
            -4.2894956469535828e-01 1.4705120027065277e-01</leafValues></_>
        <_>
          <internalNodes>
            0 -1 275 -1145349837 945290111 2103600919 -762456262
            1072144157 -2007586972 -269277310 -1000830788</internalNodes>
          <leafValues>
            -2.2738689184188843e-01 2.6378560066223145e-01</leafValues></_>
        <_>
          <internalNodes>
            0 -1 89 -176528830 373614308 1920395780 1099353482
            -1256791382 -856374507 1646289707 352313305</internalNodes>
          <leafValues>
            -3.5487762093544006e-01 1.7795333266258240e-01</leafValues></_>
        <_>
          <internalNodes>
            0 -1 289 1619050048 395813355 -1341677567 1370661575
            -1195197617 -1505557910 583442839 262090958</internalNodes>
          <leafValues>
            -2.7193039655685425e-01 2.2011157870292664e-01</leafValues></_>
        <_>
          <internalNodes>
            0 -1 279 712182064 -1445477417 1683989398 -1929262066
            358430364 478757359 -79088150 223011208</internalNodes>
          <leafValues>
            -3.5868981480598450e-01 1.6418765485286713e-01</leafValues></_>
        <_>
          <internalNodes>
            0 -1 291 -17847530 1624443327 160058 1667950730 -102536895
            1091633665 -257955376 -1053755101</internalNodes>
          <leafValues>
            -3.0704832077026367e-01 2.0025198161602020e-01</leafValues></_>
        <_>
          <internalNodes>
            0 -1 304 929713930 358371770 1272406568 -447512056
            1368422362 -1927026255 -354664434 -866654536</internalNodes>
          <leafValues>
            -2.6979956030845642e-01 2.2107863426208496e-01</leafValues></_></weakClassifiers></_>
    <!-- stage 19 -->
    <_>
      <maxWeakCount>29</maxWeakCount>
      <stageThreshold>-1.7089471817016602e+00</stageThreshold>
      <weakClassifiers>
        <_>
          <internalNodes>
            0 -1 323 -883754497 -4208133 1531820495 -1344742563
            184581115 -72631633 -607388681 -269419789</internalNodes>
          <leafValues>
            -4.8893830180168152e-01 -3.4761156886816025e-02</leafValues></_>
        <_>
          <internalNodes>
            0 -1 149 -287856034 2147471839 -469073378 -229459682
            1262381349 1829179500 -83166668 -214762513</internalNodes>
          <leafValues>
            -3.2925617694854736e-01 1.6507500410079956e-01</leafValues></_>
        <_>
          <internalNodes>
            0 -1 127 -933052416 1931178835 -251624913 -175017199
            -930159677 -347150719 -775304545 -2145140062</internalNodes>
          <leafValues>
            -3.4657686948776245e-01 1.5964540839195251e-01</leafValues></_>
        <_>
          <internalNodes>
            0 -1 9 -837850110 -867147520 -1357730698 -51230652
            1488329728 -53434072 -548398078 1987470593</internalNodes>
          <leafValues>
            -4.1719499230384827e-01 1.6318571567535400e-01</leafValues></_>
        <_>
          <internalNodes>
            0 -1 250 -456401926 1602871072 -54605836 -257225312
            -1976050614 1853572415 1816119007 1605326003</internalNodes>
          <leafValues>
            -2.2805829346179962e-01 2.4934658408164978e-01</leafValues></_>
        <_>
          <internalNodes>
            0 -1 29 136499030 -414278370 715028478 -181241142 -636740380
            2126473664 -842837691 477243907</internalNodes>
          <leafValues>
            -4.3498826026916504e-01 1.3275489211082458e-01</leafValues></_>
        <_>
          <internalNodes>
            0 -1 313 1274209279 -13397037 -1862201187 -1367049785
            251685683 -49225558 151599721 -273360425</internalNodes>
          <leafValues>
            -2.6121339201927185e-01 2.2856527566909790e-01</leafValues></_>
        <_>
          <internalNodes>
            0 -1 151 -740831372 785568064 -1916680428 752144469
            608928063 981616080 -288641874 671606227</internalNodes>
          <leafValues>
            -4.0495067834854126e-01 1.4320068061351776e-01</leafValues></_>
        <_>
          <internalNodes>
            0 -1 7 785753700 -266045249 250965130 -852100554 1871703918
            -1373243245 -837649572 -163451433</internalNodes>
          <leafValues>
            -3.2564827799797058e-01 1.9238004088401794e-01</leafValues></_>
        <_>
          <internalNodes>
            0 -1 273 -471862400 658830709 -1253816082 -2119312414
            -2133996652 183300738 715624265 96974033</internalNodes>
          <leafValues>
            -3.9718544483184814e-01 1.4105218648910522e-01</leafValues></_>
        <_>
          <internalNodes>
            0 -1 237 938457998 459638119 989658302 825278446 -1074274546
            387047421 -142613022 -226494305</internalNodes>
          <leafValues>
            -2.0981778204441071e-01 2.7337971329689026e-01</leafValues></_>
        <_>
          <internalNodes>
            0 -1 128 -385558667 -1076063723 -1023342243 -537161319
            -875826187 -379985766 -1692693543 -1882695659</internalNodes>
          <leafValues>
            -2.4606685340404510e-01 2.3157502710819244e-01</leafValues></_>
        <_>
          <internalNodes>
            0 -1 270 -1825857629 -1812268161 1140028065 1576255624
            -1028400760 -1948257594 62122387 -773600822</internalNodes>
          <leafValues>
            -1.9270321726799011e-01 2.9397040605545044e-01</leafValues></_>
        <_>
          <internalNodes>
            0 -1 329 252738559 -69746246 1566158981 267684093 1258295964
            -3243391 -107815970 1337229175</internalNodes>
          <leafValues>
            -2.9843649268150330e-01 2.0397733151912689e-01</leafValues></_>
        <_>
          <internalNodes>
            0 -1 93 -727871834 -287643282 -2079439614 -497884518
            -297506479 1627531296 -314726031 -144773250</internalNodes>
          <leafValues>
            -3.2683977484703064e-01 1.6551290452480316e-01</leafValues></_>
        <_>
          <internalNodes>
            0 -1 290 1907503419 -743706961 -3934825 -207425880
            -1173647948 -947919371 -1678833976 -533798149</internalNodes>
          <leafValues>
            -1.7182901501655579e-01 3.4091225266456604e-01</leafValues></_>
        <_>
          <internalNodes>
            0 -1 184 738396962 1593509 -939410612 -78194639 1747933461
            -108527048 -92061952 -827034652</internalNodes>
          <leafValues>
            -4.1809067130088806e-01 1.2998731434345245e-01</leafValues></_>
        <_>
          <internalNodes>
            0 -1 214 -1690639598 164697868 -1831996191 165927950
            1392198188 1103907843 1911662036 550886655</internalNodes>
          <leafValues>
            -3.0208998918533325e-01 1.9419063627719879e-01</leafValues></_>
        <_>
          <internalNodes>
            0 -1 49 1190004900 451551256 1210589821 1505010013 277233859
            -1982954488 1171166168 828269290</internalNodes>
          <leafValues>
            -4.3846204876899719e-01 1.2502199411392212e-01</leafValues></_>
        <_>
          <internalNodes>
            0 -1 28 1464015999 -1289803009 -281072934 -1914724105
            -285844322 -8921252 1856441444 -549052680</internalNodes>
          <leafValues>
            -1.9412890076637268e-01 3.0642092227935791e-01</leafValues></_>
        <_>
          <internalNodes>
            0 -1 121 381737946 -279133157 1431426552 -213661736
            1484898542 1225033869 1141666034 630007905</internalNodes>
          <leafValues>
            -3.6081346869468689e-01 1.6290113329887390e-01</leafValues></_>
        <_>
          <internalNodes>
            0 -1 67 -898191777 124569110 570518531 -143862966 1290453704
            -582854578 -847886264 2133283598</internalNodes>
          <leafValues>
            -2.4555082619190216e-01 2.4169875681400299e-01</leafValues></_>
        <_>
          <internalNodes>
            0 -1 260 -1424514140 1440157701 -1550757520 1700520404
            528674805 -2002601856 -1313130248 360692090</internalNodes>
          <leafValues>
            -2.8907805681228638e-01 2.0604118704795837e-01</leafValues></_>
        <_>
          <internalNodes>
            0 -1 311 788585391 -197573988 -1006418853 1330802900
            176180111 -209157933 -214421753 1328958436</internalNodes>
          <leafValues>
            -3.3169287443161011e-01 1.6487286984920502e-01</leafValues></_>
        <_>
          <internalNodes>
            0 -1 255 585025450 559597812 -1689583712 -1499237660
            1130879758 750954531 -1008049230 899576514</internalNodes>
          <leafValues>
            -4.0034982562065125e-01 1.5017765760421753e-01</leafValues></_>
        <_>
          <internalNodes>
            0 -1 125 -566234076 871649298 1467042995 -579477815
            -968481899 -565853576 1566294419 -1540202809</internalNodes>
          <leafValues>
            -2.9213833808898926e-01 1.9733431935310364e-01</leafValues></_>
        <_>
          <internalNodes>
            0 -1 86 742325822 586602071 841319543 335980192 2127190816
            -1980230180 -1638236571 1020150725</internalNodes>
          <leafValues>
            -3.4928813576698303e-01 1.7281031608581543e-01</leafValues></_>
        <_>
          <internalNodes>
            0 -1 284 2073476664 965891152 -2099575284 -1854866432
            1796430746 -1692716455 -1202543958 1219612056</internalNodes>
          <leafValues>
            -2.8219473361968994e-01 2.0697282254695892e-01</leafValues></_>
        <_>
          <internalNodes>
            0 -1 139 -1894514942 13174265 -1962904286 -1064878599
            1933734658 46084599 438977604 1146090311</internalNodes>
          <leafValues>
            -6.2051814794540405e-01 9.9303960800170898e-02</leafValues></_></weakClassifiers></_></stages>
  <features>
    <_>
      <rect>
        0 0 1 9</rect></_>
    <_>
      <rect>
        0 0 2 3</rect></_>
    <_>
      <rect>
        0 0 3 3</rect></_>
    <_>
      <rect>
        0 0 3 4</rect></_>
    <_>
      <rect>
        0 0 4 2</rect></_>
    <_>
      <rect>
        0 0 4 4</rect></_>
    <_>
      <rect>
        0 0 4 6</rect></_>
    <_>
      <rect>
        0 0 6 8</rect></_>
    <_>
      <rect>
        0 1 2 2</rect></_>
    <_>
      <rect>
        0 1 2 3</rect></_>
    <_>
      <rect>
        0 1 2 4</rect></_>
    <_>
      <rect>
        0 1 5 2</rect></_>
    <_>
      <rect>
        0 1 6 2</rect></_>
    <_>
      <rect>
        0 2 2 3</rect></_>
    <_>
      <rect>
        0 2 2 4</rect></_>
    <_>
      <rect>
        0 2 4 2</rect></_>
    <_>
      <rect>
        0 2 4 3</rect></_>
    <_>
      <rect>
        0 2 6 3</rect></_>
    <_>
      <rect>
        0 3 1 2</rect></_>
    <_>
      <rect>
        0 3 2 8</rect></_>
    <_>
      <rect>
        0 7 4 6</rect></_>
    <_>
      <rect>
        0 8 1 3</rect></_>
    <_>
      <rect>
        0 9 5 6</rect></_>
    <_>
      <rect>
        0 9 6 5</rect></_>
    <_>
      <rect>
        0 9 6 6</rect></_>
    <_>
      <rect>
        0 10 5 2</rect></_>
    <_>
      <rect>
        0 12 3 5</rect></_>
    <_>
      <rect>
        0 12 5 5</rect></_>
    <_>
      <rect>
        0 15 2 3</rect></_>
    <_>
      <rect>
        0 15 5 4</rect></_>
    <_>
      <rect>
        0 16 4 3</rect></_>
    <_>
      <rect>
        0 17 6 3</rect></_>
    <_>
      <rect>
        0 18 3 3</rect></_>
    <_>
      <rect>
        0 18 4 2</rect></_>
    <_>
      <rect>
        0 18 4 3</rect></_>
    <_>
      <rect>
        0 18 6 3</rect></_>
    <_>
      <rect>
        0 19 1 2</rect></_>
    <_>
      <rect>
        0 19 2 2</rect></_>
    <_>
      <rect>
        0 19 5 2</rect></_>
    <_>
      <rect>
        0 20 5 2</rect></_>
    <_>
      <rect>
        0 21 5 1</rect></_>
    <_>
      <rect>
        0 21 6 2</rect></_>
    <_>
      <rect>
        0 22 4 1</rect></_>
    <_>
      <rect>
        1 0 2 4</rect></_>
    <_>
      <rect>
        1 0 3 3</rect></_>
    <_>
      <rect>
        1 0 3 5</rect></_>
    <_>
      <rect>
        1 0 4 4</rect></_>
    <_>
      <rect>
        1 0 5 4</rect></_>
    <_>
      <rect>
        1 0 6 4</rect></_>
    <_>
      <rect>
        1 1 3 3</rect></_>
    <_>
      <rect>
        1 1 3 5</rect></_>
    <_>
      <rect>
        1 2 2 2</rect></_>
    <_>
      <rect>
        1 2 2 7</rect></_>
    <_>
      <rect>
        1 2 3 2</rect></_>
    <_>
      <rect>
        1 4 2 2</rect></_>
    <_>
      <rect>
        1 5 1 1</rect></_>
    <_>
      <rect>
        1 6 2 5</rect></_>
    <_>
      <rect>
        1 12 3 5</rect></_>
    <_>
      <rect>
        1 12 6 5</rect></_>
    <_>
      <rect>
        1 15 3 4</rect></_>
    <_>
      <rect>
        1 16 6 3</rect></_>
    <_>
      <rect>
        1 18 6 3</rect></_>
    <_>
      <rect>
        1 19 2 2</rect></_>
    <_>
      <rect>
        1 19 3 2</rect></_>
    <_>
      <rect>
        1 19 4 2</rect></_>
    <_>
      <rect>
        1 20 3 2</rect></_>
    <_>
      <rect>
        1 20 4 2</rect></_>
    <_>
      <rect>
        1 21 3 2</rect></_>
    <_>
      <rect>
        1 21 5 2</rect></_>
    <_>
      <rect>
        2 0 2 6</rect></_>
    <_>
      <rect>
        2 0 5 5</rect></_>
    <_>
      <rect>
        2 0 6 7</rect></_>
    <_>
      <rect>
        2 1 2 4</rect></_>
    <_>
      <rect>
        2 4 2 1</rect></_>
    <_>
      <rect>
        2 7 2 5</rect></_>
    <_>
      <rect>
        2 12 6 5</rect></_>
    <_>
      <rect>
        2 15 5 4</rect></_>
    <_>
      <rect>
        2 18 4 3</rect></_>
    <_>
      <rect>
        2 20 6 2</rect></_>
    <_>
      <rect>
        2 21 2 2</rect></_>
    <_>
      <rect>
        2 21 3 2</rect></_>
    <_>
      <rect>
        3 0 5 4</rect></_>
    <_>
      <rect>
        3 1 2 4</rect></_>
    <_>
      <rect>
        3 1 5 2</rect></_>
    <_>
      <rect>
        3 2 2 4</rect></_>
    <_>
      <rect>
        3 2 3 2</rect></_>
    <_>
      <rect>
        3 2 4 6</rect></_>
    <_>
      <rect>
        3 5 5 5</rect></_>
    <_>
      <rect>
        3 6 2 2</rect></_>
    <_>
      <rect>
        3 6 2 5</rect></_>
    <_>
      <rect>
        3 6 5 7</rect></_>
    <_>
      <rect>
        3 8 2 2</rect></_>
    <_>
      <rect>
        3 8 2 6</rect></_>
    <_>
      <rect>
        3 9 1 2</rect></_>
    <_>
      <rect>
        3 10 5 4</rect></_>
    <_>
      <rect>
        3 11 1 3</rect></_>
    <_>
      <rect>
        3 17 3 2</rect></_>
    <_>
      <rect>
        3 18 2 2</rect></_>
    <_>
      <rect>
        3 18 5 3</rect></_>
    <_>
      <rect>
        3 20 3 2</rect></_>
    <_>
      <rect>
        4 0 5 3</rect></_>
    <_>
      <rect>
        4 2 1 2</rect></_>
    <_>
      <rect>
        4 3 1 1</rect></_>
    <_>
      <rect>
        4 3 3 2</rect></_>
    <_>
      <rect>
        4 3 5 1</rect></_>
    <_>
      <rect>
        4 3 5 5</rect></_>
    <_>
      <rect>
        4 4 5 2</rect></_>
    <_>
      <rect>
        4 6 1 1</rect></_>
    <_>
      <rect>
        4 6 2 5</rect></_>
    <_>
      <rect>
        4 7 2 4</rect></_>
    <_>
      <rect>
        4 7 2 5</rect></_>
    <_>
      <rect>
        4 8 1 1</rect></_>
    <_>
      <rect>
        4 9 1 1</rect></_>
    <_>
      <rect>
        4 9 2 6</rect></_>
    <_>
      <rect>
        4 10 1 1</rect></_>
    <_>
      <rect>
        4 11 1 1</rect></_>
    <_>
      <rect>
        4 11 1 3</rect></_>
    <_>
      <rect>
        4 12 2 3</rect></_>
    <_>
      <rect>
        4 14 1 2</rect></_>
    <_>
      <rect>
        4 15 2 2</rect></_>
    <_>
      <rect>
        4 16 2 2</rect></_>
    <_>
      <rect>
        4 19 3 2</rect></_>
    <_>
      <rect>
        4 21 3 2</rect></_>
    <_>
      <rect>
        4 21 5 1</rect></_>
    <_>
      <rect>
        4 21 5 2</rect></_>
    <_>
      <rect>
        5 0 5 3</rect></_>
    <_>
      <rect>
        5 0 5 4</rect></_>
    <_>
      <rect>
        5 1 1 4</rect></_>
    <_>
      <rect>
        5 2 1 1</rect></_>
    <_>
      <rect>
        5 3 1 1</rect></_>
    <_>
      <rect>
        5 4 1 1</rect></_>
    <_>
      <rect>
        5 4 1 2</rect></_>
    <_>
      <rect>
        5 5 1 1</rect></_>
    <_>
      <rect>
        5 5 2 3</rect></_>
    <_>
      <rect>
        5 5 5 1</rect></_>
    <_>
      <rect>
        5 7 2 5</rect></_>
    <_>
      <rect>
        5 8 1 1</rect></_>
    <_>
      <rect>
        5 9 1 1</rect></_>
    <_>
      <rect>
        5 10 1 1</rect></_>
    <_>
      <rect>
        5 10 5 2</rect></_>
    <_>
      <rect>
        5 11 1 1</rect></_>
    <_>
      <rect>
        5 11 1 3</rect></_>
    <_>
      <rect>
        5 11 3 2</rect></_>
    <_>
      <rect>
        5 13 1 2</rect></_>
    <_>
      <rect>
        5 14 1 2</rect></_>
    <_>
      <rect>
        5 17 1 1</rect></_>
    <_>
      <rect>
        5 17 2 2</rect></_>
    <_>
      <rect>
        5 18 1 1</rect></_>
    <_>
      <rect>
        5 18 3 3</rect></_>
    <_>
      <rect>
        5 19 1 1</rect></_>
    <_>
      <rect>
        5 20 3 2</rect></_>
    <_>
      <rect>
        5 20 5 2</rect></_>
    <_>
      <rect>
        5 21 1 1</rect></_>
    <_>
      <rect>
        5 21 3 2</rect></_>
    <_>
      <rect>
        5 21 4 2</rect></_>
    <_>
      <rect>
        5 21 5 2</rect></_>
    <_>
      <rect>
        5 24 5 1</rect></_>
    <_>
      <rect>
        6 0 4 3</rect></_>
    <_>
      <rect>
        6 1 1 1</rect></_>
    <_>
      <rect>
        6 1 2 2</rect></_>
    <_>
      <rect>
        6 2 2 2</rect></_>
    <_>
      <rect>
        6 3 1 1</rect></_>
    <_>
      <rect>
        6 3 2 2</rect></_>
    <_>
      <rect>
        6 4 2 2</rect></_>
    <_>
      <rect>
        6 5 1 1</rect></_>
    <_>
      <rect>
        6 5 2 5</rect></_>
    <_>
      <rect>
        6 6 2 3</rect></_>
    <_>
      <rect>
        6 8 1 1</rect></_>
    <_>
      <rect>
        6 8 2 2</rect></_>
    <_>
      <rect>
        6 11 1 1</rect></_>
    <_>
      <rect>
        6 11 1 3</rect></_>
    <_>
      <rect>
        6 11 4 2</rect></_>
    <_>
      <rect>
        6 13 1 3</rect></_>
    <_>
      <rect>
        6 13 2 4</rect></_>
    <_>
      <rect>
        6 14 1 2</rect></_>
    <_>
      <rect>
        6 14 2 2</rect></_>
    <_>
      <rect>
        6 15 2 3</rect></_>
    <_>
      <rect>
        6 16 1 1</rect></_>
    <_>
      <rect>
        6 17 2 2</rect></_>
    <_>
      <rect>
        6 19 1 2</rect></_>
    <_>
      <rect>
        6 19 4 2</rect></_>
    <_>
      <rect>
        6 20 4 1</rect></_>
    <_>
      <rect>
        6 22 1 1</rect></_>
    <_>
      <rect>
        6 23 1 1</rect></_>
    <_>
      <rect>
        6 24 2 1</rect></_>
    <_>
      <rect>
        7 2 1 1</rect></_>
    <_>
      <rect>
        7 2 3 2</rect></_>
    <_>
      <rect>
        7 3 2 2</rect></_>
    <_>
      <rect>
        7 4 2 5</rect></_>
    <_>
      <rect>
        7 4 3 2</rect></_>
    <_>
      <rect>
        7 10 2 2</rect></_>
    <_>
      <rect>
        7 13 4 3</rect></_>
    <_>
      <rect>
        7 14 2 4</rect></_>
    <_>
      <rect>
        7 14 3 4</rect></_>
    <_>
      <rect>
        7 14 4 4</rect></_>
    <_>
      <rect>
        7 16 1 1</rect></_>
    <_>
      <rect>
        7 18 4 3</rect></_>
    <_>
      <rect>
        7 19 3 2</rect></_>
    <_>
      <rect>
        7 19 4 2</rect></_>
    <_>
      <rect>
        7 20 1 1</rect></_>
    <_>
      <rect>
        7 21 3 2</rect></_>
    <_>
      <rect>
        7 22 1 1</rect></_>
    <_>
      <rect>
        7 22 4 1</rect></_>
    <_>
      <rect>
        7 23 1 1</rect></_>
    <_>
      <rect>
        7 23 2 1</rect></_>
    <_>
      <rect>
        8 0 3 3</rect></_>
    <_>
      <rect>
        8 0 3 5</rect></_>
    <_>
      <rect>
        8 1 3 2</rect></_>
    <_>
      <rect>
        8 1 3 3</rect></_>
    <_>
      <rect>
        8 1 4 7</rect></_>
    <_>
      <rect>
        8 3 2 2</rect></_>
    <_>
      <rect>
        8 3 2 3</rect></_>
    <_>
      <rect>
        8 4 2 2</rect></_>
    <_>
      <rect>
        8 5 4 7</rect></_>
    <_>
      <rect>
        8 8 2 4</rect></_>
    <_>
      <rect>
        8 8 2 5</rect></_>
    <_>
      <rect>
        8 12 2 3</rect></_>
    <_>
      <rect>
        8 12 3 5</rect></_>
    <_>
      <rect>
        8 13 2 4</rect></_>
    <_>
      <rect>
        8 15 3 4</rect></_>
    <_>
      <rect>
        8 16 2 2</rect></_>
    <_>
      <rect>
        8 19 1 2</rect></_>
    <_>
      <rect>
        8 20 2 2</rect></_>
    <_>
      <rect>
        8 22 1 1</rect></_>
    <_>
      <rect>
        8 23 1 1</rect></_>
    <_>
      <rect>
        9 0 3 5</rect></_>
    <_>
      <rect>
        9 1 3 6</rect></_>
    <_>
      <rect>
        9 3 3 5</rect></_>
    <_>
      <rect>
        9 4 2 4</rect></_>
    <_>
      <rect>
        9 5 2 2</rect></_>
    <_>
      <rect>
        9 5 2 5</rect></_>
    <_>
      <rect>
        9 7 2 2</rect></_>
    <_>
      <rect>
        9 7 2 6</rect></_>
    <_>
      <rect>
        9 9 2 5</rect></_>
    <_>
      <rect>
        9 9 2 6</rect></_>
    <_>
      <rect>
        9 13 1 1</rect></_>
    <_>
      <rect>
        9 14 2 3</rect></_>
    <_>
      <rect>
        9 15 1 2</rect></_>
    <_>
      <rect>
        9 19 1 1</rect></_>
    <_>
      <rect>
        9 20 1 1</rect></_>
    <_>
      <rect>
        9 20 3 2</rect></_>
    <_>
      <rect>
        9 23 1 1</rect></_>
    <_>
      <rect>
        10 0 2 3</rect></_>
    <_>
      <rect>
        10 0 3 4</rect></_>
    <_>
      <rect>
        10 1 2 2</rect></_>
    <_>
      <rect>
        10 3 2 6</rect></_>
    <_>
      <rect>
        10 4 2 5</rect></_>
    <_>
      <rect>
        10 6 2 2</rect></_>
    <_>
      <rect>
        10 6 3 3</rect></_>
    <_>
      <rect>
        10 7 1 1</rect></_>
    <_>
      <rect>
        10 7 1 3</rect></_>
    <_>
      <rect>
        10 7 1 5</rect></_>
    <_>
      <rect>
        10 7 2 2</rect></_>
    <_>
      <rect>
        10 7 2 3</rect></_>
    <_>
      <rect>
        10 8 2 1</rect></_>
    <_>
      <rect>
        10 8 2 2</rect></_>
    <_>
      <rect>
        10 8 2 4</rect></_>
    <_>
      <rect>
        10 13 3 3</rect></_>
    <_>
      <rect>
        10 16 2 2</rect></_>
    <_>
      <rect>
        10 18 1 1</rect></_>
    <_>
      <rect>
        10 18 2 2</rect></_>
    <_>
      <rect>
        10 18 3 3</rect></_>
    <_>
      <rect>
        10 19 1 1</rect></_>
    <_>
      <rect>
        10 22 1 1</rect></_>
    <_>
      <rect>
        10 23 1 1</rect></_>
    <_>
      <rect>
        11 0 2 3</rect></_>
    <_>
      <rect>
        11 0 2 8</rect></_>
    <_>
      <rect>
        11 0 3 2</rect></_>
    <_>
      <rect>
        11 1 3 2</rect></_>
    <_>
      <rect>
        11 2 2 4</rect></_>
    <_>
      <rect>
        11 2 3 2</rect></_>
    <_>
      <rect>
        11 2 3 3</rect></_>
    <_>
      <rect>
        11 3 1 1</rect></_>
    <_>
      <rect>
        11 3 2 4</rect></_>
    <_>
      <rect>
        11 3 3 2</rect></_>
    <_>
      <rect>
        11 3 3 8</rect></_>
    <_>
      <rect>
        11 6 1 1</rect></_>
    <_>
      <rect>
        11 6 2 2</rect></_>
    <_>
      <rect>
        11 15 1 2</rect></_>
    <_>
      <rect>
        11 15 3 4</rect></_>
    <_>
      <rect>
        11 16 1 2</rect></_>
    <_>
      <rect>
        11 17 1 1</rect></_>
    <_>
      <rect>
        11 19 1 1</rect></_>
    <_>
      <rect>
        11 20 2 2</rect></_>
    <_>
      <rect>
        11 20 3 2</rect></_>
    <_>
      <rect>
        11 21 1 2</rect></_>
    <_>
      <rect>
        12 3 2 2</rect></_>
    <_>
      <rect>
        12 6 1 1</rect></_>
    <_>
      <rect>
        12 7 1 3</rect></_>
    <_>
      <rect>
        12 8 1 5</rect></_>
    <_>
      <rect>
        12 12 2 3</rect></_>
    <_>
      <rect>
        12 15 1 2</rect></_>
    <_>
      <rect>
        12 17 2 2</rect></_>
    <_>
      <rect>
        13 2 2 3</rect></_>
    <_>
      <rect>
        13 3 1 2</rect></_>
    <_>
      <rect>
        13 3 2 3</rect></_>
    <_>
      <rect>
        13 4 2 2</rect></_>
    <_>
      <rect>
        14 0 2 3</rect></_>
    <_>
      <rect>
        14 2 2 5</rect></_>
    <_>
      <rect>
        14 3 1 4</rect></_>
    <_>
      <rect>
        14 3 2 8</rect></_>
    <_>
      <rect>
        14 4 1 2</rect></_>
    <_>
      <rect>
        14 6 1 1</rect></_>
    <_>
      <rect>
        14 14 2 3</rect></_>
    <_>
      <rect>
        14 18 2 2</rect></_>
    <_>
      <rect>
        14 18 2 3</rect></_>
    <_>
      <rect>
        15 4 1 2</rect></_>
    <_>
      <rect>
        17 0 1 1</rect></_>
    <_>
      <rect>
        17 1 1 1</rect></_>
    <_>
      <rect>
        17 2 1 1</rect></_>
    <_>
      <rect>
        17 3 1 1</rect></_>
    <_>
      <rect>
        17 4 1 1</rect></_>
    <_>
      <rect>
        17 5 1 1</rect></_>
    <_>
      <rect>
        17 6 1 1</rect></_>
    <_>
      <rect>
        17 6 1 3</rect></_>
    <_>
      <rect>
        17 7 1 1</rect></_>
    <_>
      <rect>
        17 8 1 1</rect></_>
    <_>
      <rect>
        17 9 1 1</rect></_>
    <_>
      <rect>
        17 12 1 3</rect></_>
    <_>
      <rect>
        17 13 1 1</rect></_>
    <_>
      <rect>
        17 14 1 3</rect></_>
    <_>
      <rect>
        17 15 1 1</rect></_>
    <_>
      <rect>
        17 15 1 2</rect></_>
    <_>
      <rect>
        17 17 1 1</rect></_>
    <_>
      <rect>
        17 18 1 1</rect></_>
    <_>
      <rect>
        17 19 1 1</rect></_>
    <_>
      <rect>
        17 20 1 1</rect></_>
    <_>
      <rect>
        17 21 1 1</rect></_>
    <_>
      <rect>
        17 22 1 1</rect></_>
    <_>
      <rect>
        17 23 1 1</rect></_>
    <_>
      <rect>
        17 24 1 1</rect></_></features></cascade>
</opencv_storage>
